<unk>	0
<bos>	0
<eos>	0
<pad>	0
▁d	-0
▁de	-1
▁e	-2
▁a	-3
ra	-4
▁p	-5
▁c	-6
os	-7
te	-8
re	-9
ta	-10
ri	-11
ma	-12
en	-13
▁s	-14
on	-15
or	-16
as	-17
do	-18
in	-19
ão	-20
da	-21
is	-22
om	-23
es	-24
▁o	-25
▁n	-26
ia	-27
▁f	-28
er	-29
ic	-30
qu	-31
▁u	-32
to	-33
de	-34
ro	-35
al	-36
an	-37
▁com	-38
▁do	-39
la	-40
▁A	-41
▁da	-42
▁m	-43
▁C	-44
▁qu	-45
ar	-46
ti	-47
▁em	-48
ção	-49
▁1	-50
▁S	-51
un	-52
ci	-53
▁re	-54
▁se	-55
▁P	-56
▁E	-57
▁es	-58
el	-59
men	-60
▁que	-61
tu	-62
▁M	-63
ha	-64
▁uma	-65
ei	-66
▁(	-67
▁é	-68
ida	-69
ol	-70
▁con	-71
▁v	-72
gu	-73
ara	-74
▁ma	-75
▁l	-76
res	-77
il	-78
▁O	-79
io	-80
▁te	-81
tra	-82
▁in	-83
em	-84
▁um	-85
▁no	-86
▁F	-87
ica	-88
▁B	-89
▁por	-90
▁na	-91
▁"	-92
se	-93
ul	-94
ca	-95
▁2	-96
nte	-97
▁fo	-98
va	-99
nc	-100
ou	-101
ria	-102
▁b	-103
ita	-104
idade	-105
▁su	-106
dos	-107
▁D	-108
▁N	-109
▁R	-110
▁po	-111
▁g	-112
▁T	-113
▁L	-114
▁para	-115
▁G	-116
le	-117
▁foi	-118
▁pro	-119
▁19	-120
mente	-121
us	-122
im	-123
ula	-124
▁I	-125
ho	-126
am	-127
tos	-128
▁as	-129
▁ou	-130
▁t	-131
so	-132
ões	-133
▁des	-134
▁como	-135
▁os	-136
pe	-137
▁Es	-138
▁an	-139
iz	-140
ras	-141
iv	-142
▁en	-143
na	-144
▁20	-145
▁V	-146
ga	-147
▁ex	-148
▁ha	-149
▁dos	-150
po	-151
▁J	-152
ncia	-153
das	-154
go	-155
▁al	-156
gi	-157
cion	-158
co	-159
rio	-160
▁hab	-161
▁á	-162
lo	-163
he	-164
ce	-165
pa	-166
tr	-167
km	-168
ente	-169
ntes	-170
▁j	-171
ve	-172
▁H	-173
ns	-174
di	-175
ém	-176
mb	-177
ico	-178
pula	-179
ist	-180
ina	-181
mento	-182
),	-183
sa	-184
▁h	-185
mo	-186
▁pe	-187
no	-188
▁ta	-189
▁popula	-190
▁ca	-191
▁pri	-192
▁ao	-193
ções	-194
ran	-195
tre	-196
ram	-197
iza	-198
▁mais	-199
eiro	-200
ça	-201
vo	-202
cional	-203
▁sua	-204
▁esta	-205
▁à	-206
cia	-207
▁par	-208
du	-209
ir	-210
▁for	-211
ter	-212
▁Em	-213
tro	-214
▁U	-215
des	-216
rea	-217
ando	-218
▁ap	-219
▁pel	-220
▁das	-221
ndo	-222
gues	-223
▁ter	-224
vi	-225
íp	-226
ista	-227
unic	-228
ui	-229
▁pa	-230
ig	-231
ira	-232
▁ser	-233
▁tra	-234
▁habita	-235
oc	-236
▁per	-237
me	-238
lia	-239
tura	-240
ob	-241
▁di	-242
eira	-243
▁área	-244
▁km	-245
unicíp	-246
▁cons	-247
gra	-248
ru	-249
ni	-250
tes	-251
▁habitantes	-252
tá	-253
",	-254
).	-255
▁Ma	-256
ís	-257
tin	-258
unicípio	-259
▁seu	-260
pos	-261
▁3	-262
fe	-263
dia	-264
▁são	-265
gião	-266
ur	-267
▁pela	-268
▁Al	-269
az	-270
▁tem	-271
mbém	-272
onte	-273
00	-274
tic	-275
▁to	-276
▁comun	-277
▁cidade	-278
▁também	-279
regues	-280
▁não	-281
tas	-282
▁ar	-283
nci	-284
ers	-285
um	-286
ros	-287
enta	-288
▁No	-289
▁prim	-290
por	-291
ec	-292
2.	-293
▁pelo	-294
té	-295
tó	-296
cul	-297
id	-298
ência	-299
ome	-300
endo	-301
▁pos	-302
gun	-303
▁Pa	-304
gem	-305
▁18	-306
▁Con	-307
lu	-308
▁entre	-309
▁San	-310
rasil	-311
▁município	-312
▁res	-313
▁ac	-314
▁forma	-315
dor	-316
que	-317
▁Re	-318
tica	-319
ris	-320
fica	-321
be	-322
▁dens	-323
ba	-324
man	-325
li	-326
ten	-327
ês	-328
▁densidade	-329
titu	-330
ral	-331
ocal	-332
▁região	-333
tor	-334
▁Ca	-335
reguesia	-336
▁populacional	-337
2,	-338
ona	-339
mas	-340
ens	-341
tri	-342
ver	-343
▁me	-344
▁im	-345
▁prov	-346
tão	-347
▁cer	-348
ura	-349
ch	-350
ano	-351
ass	-352
tros	-353
▁4	-354
▁200	-355
ez	-356
▁mo	-357
▁ele	-358
ân	-359
emb	-360
vel	-361
istó	-362
og	-363
dade	-364
▁era	-365
ja	-366
tal	-367
▁Se	-368
▁As	-369
gua	-370
▁Por	-371
pres	-372
bo	-373
iste	-374
tiva	-375
min	-376
▁201	-377
▁fun	-378
▁Na	-379
ix	-380
▁São	-381
fic	-382
orte	-383
tiv	-384
▁nome	-385
íncia	-386
▁anos	-387
▁população	-388
bl	-389
▁tendo	-390
tado	-391
dado	-392
".	-393
▁pr	-394
▁local	-395
▁la	-396
▁5	-397
▁fil	-398
orre	-399
▁comp	-400
▁ob	-401
ido	-402
inha	-403
▁pode	-404
tru	-405
▁pre	-406
con	-407
▁província	-408
ín	-409
▁sob	-410
▁au	-411
rios	-412
ado	-413
▁Com	-414
heci	-415
▁nas	-416
▁cerca	-417
ide	-418
esso	-419
▁An	-420
▁W	-421
fia	-422
ós	-423
for	-424
ço	-425
til	-426
▁on	-427
▁Su	-428
▁Os	-429
▁mes	-430
▁mas	-431
ino	-432
lan	-433
ge	-434
▁car	-435
▁sé	-436
ric	-437
ima	-438
▁ab	-439
ais	-440
▁esc	-441
▁comuna	-442
▁K	-443
pan	-444
ess	-445
este	-446
▁mar	-447
▁dis	-448
cio	-449
▁cas	-450
ário	-451
je	-452
▁poss	-453
tan	-454
▁até	-455
▁div	-456
vol	-457
▁nos	-458
za	-459
▁De	-460
rande	-461
orn	-462
almente	-463
▁co	-464
ito	-465
0,	-466
▁Cas	-467
▁6	-468
ranc	-469
▁le	-470
ena	-471
▁ad	-472
ila	-473
▁parte	-474
▁ro	-475
cial	-476
istória	-477
tico	-478
▁199	-479
rias	-480
▁onde	-481
ib	-482
ana	-483
der	-484
rado	-485
gos	-486
▁X	-487
rito	-488
les	-489
erra	-490
▁pres	-491
▁fa	-492
▁conheci	-493
idades	-494
grafia	-495
▁ba	-496
▁segu	-497
rá	-498
ior	-499
ne	-500
ias	-501
▁dist	-502
▁Mar	-503
▁inc	-504
▁sendo	-505
▁Brasil	-506
hos	-507
▁ori	-508
▁ass	-509
ôn	-510
▁Fo	-511
▁enc	-512
▁-	-513
culo	-514
ial	-515
▁freguesia	-516
tar	-517
entes	-518
cu	-519
▁produ	-520
ero	-521
ração	-522
mentos	-523
bal	-524
▁ge	-525
▁princi	-526
▁foram	-527
▁É	-528
pé	-529
has	-530
▁cor	-531
▁inte	-532
qui	-533
▁estado	-534
▁cen	-535
▁7	-536
▁cha	-537
ase	-538
rior	-539
▁col	-540
▁ano	-541
▁Esta	-542
tende	-543
embro	-544
▁Ar	-545
▁mil	-546
tivo	-547
▁sub	-548
icos	-549
▁ins	-550
ala	-551
▁or	-552
▁mui	-553
és	-554
eito	-555
▁sobre	-556
▁seus	-557
▁8	-558
ven	-559
▁maior	-560
▁Ba	-561
▁fr	-562
▁está	-563
italia	-564
▁sem	-565
▁qual	-566
▁italia	-567
▁Pe	-568
▁vez	-569
▁Car	-570
▁ra	-571
enas	-572
iro	-573
▁ti	-574
urante	-575
▁conc	-576
rin	-577
▁Ge	-578
▁so	-579
▁sede	-580
▁Jo	-581
icas	-582
fere	-583
ip	-584
end	-585
iss	-586
elho	-587
▁Uni	-588
istra	-589
via	-590
pon	-591
gundo	-592
▁fam	-593
3,	-594
▁du	-595
▁Le	-596
▁In	-597
▁fronte	-598
▁Estende	-599
ição	-600
▁pol	-601
▁faz	-602
rie	-603
▁9	-604
ele	-605
tou	-606
▁ú	-607
▁portu	-608
19	-609
ús	-610
rica	-611
▁Q	-612
inda	-613
▁Ch	-614
dio	-615
▁chama	-616
▁mu	-617
▁el	-618
▁inter	-619
▁Gu	-620
▁cria	-621
▁La	-622
gan	-623
▁Faz	-624
▁198	-625
gre	-626
▁sa	-627
▁quando	-628
ada	-629
▁fronteira	-630
▁Co	-631
pre	-632
uro	-633
▁Rio	-634
▁Foi	-635
tras	-636
ber	-637
▁lu	-638
ine	-639
indo	-640
▁anti	-641
▁trans	-642
▁suas	-643
▁primeiro	-644
▁202	-645
▁pass	-646
ás	-647
▁parti	-648
▁dire	-649
dic	-650
mi	-651
ismo	-652
▁den	-653
ion	-654
▁is	-655
1,	-656
ização	-657
▁espe	-658
ton	-659
▁encon	-660
▁ban	-661
▁século	-662
▁aos	-663
▁brasil	-664
5,	-665
mos	-666
▁Qu	-667
▁italiana	-668
eiros	-669
ação	-670
gar	-671
▁196	-672
▁país	-673
▁197	-674
gal	-675
óp	-676
ves	-677
pois	-678
▁Sa	-679
inal	-680
▁jun	-681
▁povo	-682
▁maio	-683
▁ind	-684
ília	-685
ministra	-686
uma	-687
aneiro	-688
th	-689
▁desen	-690
▁outros	-691
▁Cam	-692
los	-693
aram	-694
over	-695
▁História	-696
▁grande	-697
▁vá	-698
▁Ro	-699
▁dia	-700
4,	-701
▁atu	-702
▁util	-703
ren	-704
ale	-705
▁can	-706
ing	-707
▁gra	-708
plo	-709
ício	-710
blica	-711
ulo	-712
ças	-713
▁("	-714
▁torn	-715
II	-716
ceu	-717
▁rela	-718
▁cam	-719
gia	-720
▁trabal	-721
ivers	-722
porta	-723
▁ver	-724
izado	-725
6,	-726
▁tr	-727
▁17	-728
▁li	-729
▁15	-730
▁cap	-731
▁dois	-732
▁men	-733
▁real	-734
▁encontra	-735
cos	-736
ografia	-737
▁primeira	-738
▁mesmo	-739
▁rec	-740
▁Po	-741
▁ainda	-742
▁atra	-743
▁Portu	-744
pera	-745
val	-746
ticas	-747
▁durante	-748
dem	-749
▁tinha	-750
▁En	-751
▁si	-752
esta	-753
▁Freguesia	-754
▁gru	-755
▁muito	-756
20	-757
▁cl	-758
▁princip	-759
undo	-760
ncias	-761
ital	-762
izada	-763
▁va	-764
olog	-765
tima	-766
ante	-767
▁Lu	-768
tí	-769
▁10	-770
ie	-771
tório	-772
forma	-773
▁Para	-774
nivers	-775
esa	-776
8,	-777
anto	-778
▁man	-779
vido	-780
ril	-781
ér	-782
▁rio	-783
êm	-784
▁Santa	-785
▁Z	-786
▁siste	-787
▁administra	-788
▁Á	-789
▁Par	-790
▁sul	-791
▁Mo	-792
it	-793
ios	-794
▁che	-795
ança	-796
igu	-797
inas	-798
bu	-799
▁Ap	-800
iu	-801
lica	-802
mar	-803
tação	-804
▁oc	-805
7,	-806
rada	-807
▁reg	-808
▁já	-809
per	-810
rem	-811
9,	-812
ór	-813
▁apenas	-814
bol	-815
▁pesso	-816
péci	-817
ên	-818
isão	-819
ad	-820
reira	-821
▁condado	-822
▁195	-823
▁cul	-824
▁seguin	-825
▁tu	-826
▁tempo	-827
▁constru	-828
▁portugues	-829
▁usa	-830
pu	-831
▁desta	-832
▁lon	-833
▁conside	-834
gen	-835
dores	-836
ard	-837
istas	-838
▁polí	-839
▁sido	-840
presenta	-841
ologia	-842
▁pelos	-843
▁possui	-844
▁apres	-845
elo	-846
▁norte	-847
▁ne	-848
panha	-849
▁cri	-850
▁vol	-851
par	-852
▁So	-853
▁il	-854
▁este	-855
▁depois	-856
▁desenvol	-857
vam	-858
▁mon	-859
olo	-860
▁Ex	-861
gens	-862
assa	-863
▁Des	-864
▁estu	-865
▁mé	-866
▁inf	-867
▁rece	-868
▁Pro	-869
guns	-870
▁após	-871
▁pu	-872
▁gover	-873
osa	-874
▁contra	-875
▁duas	-876
▁espéci	-877
")	-878
▁três	-879
vimento	-880
fa	-881
ária	-882
▁Me	-883
▁plan	-884
▁14	-885
isa	-886
▁Bar	-887
arac	-888
ível	-889
▁def	-890
▁16	-891
▁nacional	-892
eio	-893
▁água	-894
▁brasileiro	-895
▁ag	-896
▁Paulo	-897
▁Mon	-898
lar	-899
▁194	-900
▁então	-901
▁pon	-902
▁Portugal	-903
las	-904
▁hom	-905
▁nú	-906
▁inic	-907
▁compos	-908
jo	-909
▁11	-910
▁ven	-911
▁12	-912
▁Sul	-913
veis	-914
▁dez	-915
▁jo	-916
▁representa	-917
▁ho	-918
▁prof	-919
▁come	-920
▁ofic	-921
▁desde	-922
▁partic	-923
▁Ele	-924
▁às	-925
▁apresenta	-926
ância	-927
mula	-928
and	-929
óg	-930
▁nova	-931
pi	-932
▁partir	-933
▁teve	-934
ene	-935
inho	-936
▁liv	-937
▁Sua	-938
itas	-939
▁funda	-940
omina	-941
cre	-942
tido	-943
▁Cal	-944
▁isso	-945
▁Ja	-946
▁proc	-947
▁lín	-948
tanto	-949
cada	-950
ute	-951
oso	-952
▁sig	-953
▁grupo	-954
▁Caste	-955
cas	-956
▁estão	-957
▁outras	-958
▁algu	-959
▁família	-960
ío	-961
▁pequ	-962
▁difere	-963
car	-964
▁edi	-965
▁Man	-966
▁sim	-967
▁Te	-968
imo	-969
▁importa	-970
▁base	-971
são	-972
▁sistema	-973
tia	-974
▁portuguesa	-975
ências	-976
ticos	-977
▁extin	-978
▁divers	-979
▁Jos	-980
vés	-981
▁nov	-982
▁ten	-983
ordo	-984
▁situ	-985
▁193	-986
nter	-987
elh	-988
▁inclu	-989
eiras	-990
▁Univers	-991
tamente	-992
▁conhecido	-993
atro	-994
one	-995
▁exem	-996
▁gu	-997
tada	-998
▁início	-999
▁pra	-1000
▁passou	-1001
▁13	-1002
deira	-1003
▁Ta	-1004
▁Ne	-1005
▁cu	-1006
▁af	-1007
▁épo	-1008
▁João	-1009
bra	-1010
0.	-1011
tina	-1012
eno	-1013
itar	-1014
bro	-1015
▁terri	-1016
oca	-1017
rança	-1018
▁signi	-1019
tamento	-1020
▁segundo	-1021
▁franc	-1022
ím	-1023
▁Cons	-1024
fer	-1025
omia	-1026
▁Or	-1027
ck	-1028
▁Tra	-1029
▁geral	-1030
cha	-1031
▁conta	-1032
▁mús	-1033
▁distrito	-1034
pais	-1035
ído	-1036
dro	-1037
▁denomina	-1038
▁pes	-1039
▁.	-1040
▁época	-1041
▁Ale	-1042
▁fre	-1043
▁ir	-1044
▁úl	-1045
rais	-1046
▁perío	-1047
quer	-1048
▁oficial	-1049
ts	-1050
idente	-1051
▁quais	-1052
rim	-1053
▁Can	-1054
▁assim	-1055
▁constitu	-1056
meric	-1057
erva	-1058
▁am	-1059
▁fe	-1060
gas	-1061
pare	-1062
▁Val	-1063
▁dé	-1064
▁Ra	-1065
utebol	-1066
▁ve	-1067
▁nor	-1068
▁alguns	-1069
▁podem	-1070
▁através	-1071
▁todos	-1072
▁janeiro	-1073
gada	-1074
▁Município	-1075
rí	-1076
tores	-1077
rico	-1078
▁Da	-1079
tivos	-1080
ense	-1081
▁mundo	-1082
ular	-1083
cido	-1084
oss	-1085
▁Bo	-1086
ze	-1087
▁vis	-1088
▁núm	-1089
▁Fer	-1090
▁Cen	-1091
▁Espanha	-1092
▁Vila	-1093
tural	-1094
▁Col	-1095
▁apro	-1096
▁origem	-1097
▁(1	-1098
▁dom	-1099
ifica	-1100
▁Ou	-1101
▁Grande	-1102
ober	-1103
▁orig	-1104
200	-1105
▁carac	-1106
▁capital	-1107
▁viv	-1108
rial	-1109
▁perte	-1110
▁Nova	-1111
gado	-1112
cn	-1113
▁(19	-1114
▁To	-1115
▁significa	-1116
rou	-1117
titude	-1118
▁vezes	-1119
mes	-1120
▁Dem	-1121
▁território	-1122
▁próp	-1123
▁acordo	-1124
▁bem	-1125
cer	-1126
gue	-1127
gunda	-1128
ón	-1129
gio	-1130
duz	-1131
ços	-1132
▁pou	-1133
▁ch	-1134
ável	-1135
▁Estados	-1136
▁Sal	-1137
menta	-1138
ons	-1139
▁vi	-1140
▁período	-1141
amb	-1142
ixo	-1143
▁José	-1144
▁passa	-1145
çou	-1146
▁Universidade	-1147
▁total	-1148
▁vida	-1149
ítu	-1150
zo	-1151
xima	-1152
▁principal	-1153
▁us	-1154
iano	-1155
ída	-1156
tem	-1157
▁cada	-1158
cri	-1159
▁roma	-1160
omo	-1161
▁empres	-1162
▁Ver	-1163
▁final	-1164
grama	-1165
▁econ	-1166
▁Y	-1167
wa	-1168
▁subs	-1169
▁Fa	-1170
▁história	-1171
íci	-1172
▁1.	-1173
▁há	-1174
▁Condado	-1175
▁língua	-1176
van	-1177
cimento	-1178
▁Franc	-1179
▁além	-1180
▁tornou	-1181
pend	-1182
▁comunidade	-1183
tino	-1184
▁formula	-1185
▁organ	-1186
▁Unidos	-1187
▁Am	-1188
dido	-1189
▁Estado	-1190
▁exemplo	-1191
cola	-1192
▁cur	-1193
▁ocorre	-1194
ord	-1195
▁fic	-1196
▁,	-1197
▁contin	-1198
ública	-1199
▁administrativa	-1200
para	-1201
11	-1202
mal	-1203
▁pessoas	-1204
reiro	-1205
jun	-1206
▁dezembro	-1207
▁25	-1208
▁existe	-1209
ários	-1210
dr	-1211
ju	-1212
dica	-1213
▁vo	-1214
socia	-1215
onal	-1216
▁sete	-1217
tim	-1218
▁conf	-1219
ental	-1220
▁especial	-1221
▁—	-1222
rar	-1223
▁metros	-1224
▁Per	-1225
▁lei	-1226
▁vários	-1227
lio	-1228
▁sol	-1229
▁só	-1230
rit	-1231
▁amb	-1232
▁sen	-1233
▁produz	-1234
bar	-1235
▁Monte	-1236
▁devido	-1237
ixa	-1238
ite	-1239
reguesias	-1240
au	-1241
nos	-1242
turas	-1243
ulho	-1244
▁resul	-1245
▁eram	-1246
▁Um	-1247
▁lança	-1248
▁Geografia	-1249
ame	-1250
cen	-1251
▁num	-1252
▁Nos	-1253
ológ	-1254
tral	-1255
▁principais	-1256
tivas	-1257
dial	-1258
▁prop	-1259
▁dec	-1260
mina	-1261
▁Ol	-1262
▁2000	-1263
tubro	-1264
ática	-1265
▁Tem	-1266
issão	-1267
▁val	-1268
lube	-1269
▁termo	-1270
▁seja	-1271
rb	-1272
dades	-1273
▁Cor	-1274
▁ru	-1275
▁mul	-1276
▁conse	-1277
▁conhecida	-1278
▁Ass	-1279
hou	-1280
ex	-1281
dida	-1282
▁ún	-1283
tante	-1284
▁Cris	-1285
▁192	-1286
quanto	-1287
▁ela	-1288
▁número	-1289
rib	-1290
beu	-1291
▁seguintes	-1292
vado	-1293
ía	-1294
▁desig	-1295
▁cos	-1296
nce	-1297
▁servi	-1298
▁Euro	-1299
▁del	-1300
▁pers	-1301
▁gran	-1302
▁lugar	-1303
mbro	-1304
▁Is	-1305
guês	-1306
▁Sen	-1307
▁espa	-1308
▁americ	-1309
▁censo	-1310
▁povoação	-1311
▁un	-1312
▁For	-1313
vas	-1314
fo	-1315
▁Nacional	-1316
5.	-1317
terís	-1318
▁títu	-1319
▁suc	-1320
ono	-1321
hões	-1322
4.	-1323
pol	-1324
▁tor	-1325
▁Norte	-1326
▁estima	-1327
nas	-1328
▁ci	-1329
noma	-1330
pen	-1331
sos	-1332
ãos	-1333
et	-1334
▁oeste	-1335
▁Maria	-1336
▁comple	-1337
ados	-1338
dou	-1339
▁(200	-1340
dual	-1341
tados	-1342
▁antes	-1343
▁escri	-1344
▁caus	-1345
gosto	-1346
▁ali	-1347
▁–	-1348
pro	-1349
▁sur	-1350
dição	-1351
vil	-1352
▁filho	-1353
bora	-1354
▁class	-1355
▁estre	-1356
▁Inter	-1357
den	-1358
▁Janeiro	-1359
▁ing	-1360
bil	-1361
▁histó	-1362
ruz	-1363
▁várias	-1364
riz	-1365
▁Entre	-1366
ire	-1367
▁publica	-1368
cid	-1369
antes	-1370
▁algumas	-1371
▁Este	-1372
▁governo	-1373
ução	-1374
ques	-1375
▁Igre	-1376
tual	-1377
1.	-1378
▁ante	-1379
undial	-1380
▁Lo	-1381
▁Fe	-1382
▁Era	-1383
▁extinta	-1384
▁tar	-1385
cho	-1386
ical	-1387
6.	-1388
▁todo	-1389
pul	-1390
▁espécies	-1391
▁z	-1392
▁década	-1393
pec	-1394
▁hoje	-1395
gn	-1396
▁Ab	-1397
▁“	-1398
▁proje	-1399
▁XV	-1400
▁Lei	-1401
rido	-1402
▁30	-1403
▁banda	-1404
ua	-1405
eros	-1406
▁vers	-1407
terior	-1408
▁fal	-1409
3.	-1410
él	-1411
ea	-1412
▁apare	-1413
▁Ga	-1414
▁pala	-1415
cado	-1416
▁conjun	-1417
eita	-1418
▁equi	-1419
▁Im	-1420
▁numa	-1421
▁autó	-1422
▁meio	-1423
ich	-1424
▁tele	-1425
ins	-1426
▁quatro	-1427
▁ocu	-1428
▁antiga	-1429
▁comum	-1430
▁vila	-1431
▁atual	-1432
▁bas	-1433
▁chamado	-1434
▁casa	-1435
7.	-1436
hia	-1437
boa	-1438
pel	-1439
▁anima	-1440
▁ju	-1441
▁min	-1442
ice	-1443
gação	-1444
▁Fil	-1445
guas	-1446
ron	-1447
▁lim	-1448
▁centro	-1449
▁Demografia	-1450
▁Nor	-1451
▁pelas	-1452
▁Pi	-1453
ôm	-1454
▁auto	-1455
▁integra	-1456
▁recon	-1457
▁Roma	-1458
▁gre	-1459
tria	-1460
xo	-1461
▁muitos	-1462
trutura	-1463
rida	-1464
fico	-1465
▁últi	-1466
lb	-1467
ença	-1468
▁obje	-1469
unda	-1470
▁cin	-1471
▁tipo	-1472
▁Ber	-1473
▁concelho	-1474
ini	-1475
▁produção	-1476
nacional	-1477
isco	-1478
▁Ins	-1479
▁Guerra	-1480
▁estava	-1481
▁of	-1482
lores	-1483
▁regi	-1484
▁morte	-1485
▁palav	-1486
▁União	-1487
eta	-1488
úbl	-1489
▁cal	-1490
▁bo	-1491
▁Bu	-1492
ph	-1493
isboa	-1494
▁grandes	-1495
▁março	-1496
▁possu	-1497
cel	-1498
érica	-1499
▁programa	-1500
ka	-1501
enda	-1502
▁aca	-1503
▁filme	-1504
ciais	-1505
▁tro	-1506
▁Igreja	-1507
▁localizada	-1508
▁nu	-1509
tário	-1510
▁enquanto	-1511
▁Mu	-1512
▁Pal	-1513
▁Local	-1514
▁uso	-1515
8.	-1516
▁autónoma	-1517
▁série	-1518
▁trabalho	-1519
grá	-1520
inh	-1521
▁ativ	-1522
▁r	-1523
lus	-1524
▁nec	-1525
che	-1526
▁reli	-1527
▁estab	-1528
▁frequ	-1529
▁Ha	-1530
▁cate	-1531
▁pró	-1532
▁21	-1533
entemente	-1534
▁24	-1535
can	-1536
▁cir	-1537
▁estra	-1538
▁cober	-1539
ornal	-1540
▁ilha	-1541
vereiro	-1542
▁id	-1543
▁permi	-1544
▁importante	-1545
lado	-1546
▁tri	-1547
▁Uma	-1548
istro	-1549
▁Seu	-1550
▁alem	-1551
▁pois	-1552
und	-1553
▁lin	-1554
▁cres	-1555
ise	-1556
eitos	-1557
▁poder	-1558
▁novembro	-1559
▁Go	-1560
▁desco	-1561
▁Após	-1562
vos	-1563
▁maioria	-1564
▁II	-1565
rina	-1566
essor	-1567
esar	-1568
▁tarde	-1569
▁0	-1570
ento	-1571
quia	-1572
tude	-1573
dados	-1574
▁Pedro	-1575
her	-1576
▁Santo	-1577
iva	-1578
▁Como	-1579
▁outro	-1580
depend	-1581
ell	-1582
▁Mé	-1583
pública	-1584
▁terra	-1585
▁julho	-1586
ual	-1587
▁Segundo	-1588
cidade	-1589
iona	-1590
▁191	-1591
▁Au	-1592
pla	-1593
▁outubro	-1594
cula	-1595
vem	-1596
ke	-1597
dar	-1598
▁segunda	-1599
▁El	-1600
partamento	-1601
▁deve	-1602
▁principalmente	-1603
▁obra	-1604
son	-1605
pação	-1606
tualmente	-1607
aran	-1608
▁português	-1609
sas	-1610
▁menos	-1611
com	-1612
"),	-1613
culos	-1614
▁têm	-1615
▁volta	-1616
ional	-1617
▁título	-1618
▁XI	-1619
▁música	-1620
ães	-1621
9.	-1622
cionais	-1623
▁Sil	-1624
▁quad	-1625
deu	-1626
000	-1627
ônio	-1628
▁novo	-1629
▁longo	-1630
▁criado	-1631
▁Lisboa	-1632
fon	-1633
▁Bra	-1634
▁Ho	-1635
▁abril	-1636
▁via	-1637
▁junho	-1638
▁muitas	-1639
rados	-1640
hi	-1641
▁sof	-1642
▁caracterís	-1643
esse	-1644
▁fundado	-1645
dios	-1646
▁havia	-1647
▁ponto	-1648
essa	-1649
▁(20	-1650
anos	-1651
▁setembro	-1652
ál	-1653
tivamente	-1654
▁seguinte	-1655
▁Pol	-1656
bri	-1657
▁Du	-1658
▁sí	-1659
▁fez	-1660
▁gan	-1661
iografia	-1662
▁Poss	-1663
isto	-1664
▁presidente	-1665
pl	-1666
veu	-1667
▁França	-1668
▁23	-1669
ogos	-1670
▁países	-1671
▁álb	-1672
▁Além	-1673
▁desenvolvimento	-1674
har	-1675
▁corpo	-1676
écn	-1677
sia	-1678
▁ig	-1679
▁fim	-1680
▁22	-1681
▁bar	-1682
ham	-1683
▁capa	-1684
▁inicia	-1685
tel	-1686
▁americano	-1687
▁Min	-1688
rando	-1689
▁aproxima	-1690
▁geralmente	-1691
▁mor	-1692
▁agosto	-1693
▁arqui	-1694
▁Mil	-1695
▁dias	-1696
▁Porto	-1697
▁contro	-1698
▁lo	-1699
▁sin	-1700
▁necess	-1701
▁rei	-1702
fíci	-1703
elhor	-1704
▁Ter	-1705
▁irm	-1706
tando	-1707
damente	-1708
▁termin	-1709
▁atri	-1710
▁formar	-1711
ress	-1712
▁corre	-1713
▁Pr	-1714
▁entanto	-1715
▁primeiros	-1716
▁Vil	-1717
▁som	-1718
▁conjunto	-1719
ond	-1720
ble	-1721
▁cheg	-1722
▁sal	-1723
▁livro	-1724
▁construção	-1725
▁classifica	-1726
riam	-1727
onato	-1728
cle	-1729
unicip	-1730
▁mos	-1731
▁domin	-1732
▁estimada	-1733
▁respon	-1734
▁tal	-1735
vada	-1736
▁Do	-1737
▁Il	-1738
▁'	-1739
rig	-1740
feito	-1741
▁processo	-1742
▁lado	-1743
▁insta	-1744
reas	-1745
▁mesma	-1746
istência	-1747
▁Fre	-1748
▁Tu	-1749
xa	-1750
▁Cu	-1751
▁cidades	-1752
▁nesta	-1753
tens	-1754
pas	-1755
▁influ	-1756
▁Ban	-1757
▁eles	-1758
▁chamada	-1759
unicipal	-1760
▁República	-1761
▁ce	-1762
étri	-1763
▁milhões	-1764
lação	-1765
hora	-1766
▁catego	-1767
ora	-1768
vida	-1769
if	-1770
▁tan	-1771
▁usado	-1772
iras	-1773
▁caso	-1774
▁obs	-1775
bre	-1776
▁altitude	-1777
deste	-1778
porte	-1779
▁Tamb	-1780
tís	-1781
▁diferentes	-1782
▁189	-1783
▁ja	-1784
bi	-1785
xto	-1786
▁Vi	-1787
▁rev	-1788
▁fica	-1789
▁má	-1790
▁públ	-1791
▁deter	-1792
cal	-1793
riza	-1794
var	-1795
▁Be	-1796
tion	-1797
▁criação	-1798
quis	-1799
▁comer	-1800
▁relação	-1801
▁cris	-1802
dra	-1803
enti	-1804
elas	-1805
▁perman	-1806
▁pai	-1807
▁Institu	-1808
tam	-1809
ônia	-1810
▁prote	-1811
-1	-1812
▁Também	-1813
▁designa	-1814
unicípios	-1815
▁super	-1816
▁2.	-1817
▁começou	-1818
▁27	-1819
én	-1820
▁igre	-1821
una	-1822
mou	-1823
▁memb	-1824
▁28	-1825
manha	-1826
cí	-1827
▁esti	-1828
▁estabele	-1829
▁deste	-1830
▁190	-1831
▁empresa	-1832
▁san	-1833
pes	-1834
▁i	-1835
ciona	-1836
▁todas	-1837
▁recebeu	-1838
..	-1839
▁31	-1840
vou	-1841
▁ado	-1842
▁espécie	-1843
▁Nas	-1844
▁ide	-1845
▁expe	-1846
▁Ser	-1847
▁escol	-1848
▁antigo	-1849
▁pertenc	-1850
▁fevereiro	-1851
▁associa	-1852
▁Possui	-1853
▁Ju	-1854
mara	-1855
▁26	-1856
▁bair	-1857
ferência	-1858
eix	-1859
▁Serra	-1860
▁entra	-1861
▁pare	-1862
izar	-1863
▁Jun	-1864
▁qualquer	-1865
tória	-1866
▁&	-1867
▁simp	-1868
▁et	-1869
▁equ	-1870
pira	-1871
▁mus	-1872
▁considerado	-1873
tora	-1874
port	-1875
dução	-1876
tt	-1877
▁deix	-1878
▁Cos	-1879
▁Durante	-1880
duca	-1881
peonato	-1882
▁jornal	-1883
▁Pra	-1884
▁proprie	-1885
lui	-1886
lân	-1887
▁fazer	-1888
▁independ	-1889
ulas	-1890
▁The	-1891
dri	-1892
iros	-1893
tais	-1894
▁pouco	-1895
seu	-1896
gios	-1897
▁ren	-1898
▁he	-1899
▁eleito	-1900
▁política	-1901
feira	-1902
▁dados	-1903
▁América	-1904
iana	-1905
izados	-1906
▁Biografia	-1907
▁tempera	-1908
ilo	-1909
▁sempre	-1910
omes	-1911
▁persona	-1912
íça	-1913
▁lí	-1914
▁dispu	-1915
tir	-1916
dan	-1917
col	-1918
don	-1919
uição	-1920
▁cens	-1921
▁Gra	-1922
▁diz	-1923
▁técn	-1924
▁Europa	-1925
▁álbum	-1926
dita	-1927
▁diversas	-1928
▁fís	-1929
iente	-1930
cto	-1931
▁diversos	-1932
52	-1933
ilia	-1934
land	-1935
deia	-1936
tera	-1937
ff	-1938
▁fer	-1939
inos	-1940
uta	-1941
vis	-1942
▁toda	-1943
▁cultura	-1944
▁2021	-1945
idro	-1946
▁Wil	-1947
▁Leão	-1948
▁imp	-1949
▁municípios	-1950
▁tur	-1951
metros	-1952
▁carreira	-1953
▁cli	-1954
▁Francisco	-1955
teriormente	-1956
ânia	-1957
▁junto	-1958
▁maiores	-1959
ki	-1960
ânica	-1961
▁futebol	-1962
giu	-1963
▁obras	-1964
7)	-1965
▁fu	-1966
▁Mundial	-1967
▁Gal	-1968
▁Senhora	-1969
▁At	-1970
▁quase	-1971
▁Li	-1972
▁mer	-1973
▁Joh	-1974
dal	-1975
▁Fede	-1976
▁Futebol	-1977
▁cinco	-1978
ry	-1979
mon	-1980
▁substitu	-1981
▁incluindo	-1982
▁sucesso	-1983
▁consegu	-1984
uel	-1985
▁ref	-1986
▁Cristo	-1987
▁ima	-1988
tista	-1989
ombar	-1990
▁outra	-1991
▁distri	-1992
▁versão	-1993
inado	-1994
▁média	-1995
blic	-1996
GE	-1997
▁seria	-1998
ng	-1999
▁ordem	-2000
▁natural	-2001
▁Popula	-2002
americ	-2003
▁188	-2004
orreu	-2005
▁quar	-2006
▁Quando	-2007
▁embora	-2008
▁aplica	-2009
bas	-2010
manas	-2011
▁dentro	-2012
▁Cha	-2013
▁institu	-2014
ses	-2015
▁esse	-2016
▁terras	-2017
▁idade	-2018
▁29	-2019
▁185	-2020
▁Pres	-2021
▁Í	-2022
▁apo	-2023
▁supe	-2024
reto	-2025
posição	-2026
▁flores	-2027
▁político	-2028
▁localizado	-2029
▁departamento	-2030
▁regista	-2031
gt	-2032
▁Mor	-2033
▁cobertos	-2034
ko	-2035
lês	-2036
jas	-2037
▁essa	-2038
▁tradic	-2039
elha	-2040
iel	-2041
▁Ita	-2042
ranco	-2043
▁Mas	-2044
▁simples	-2045
III	-2046
▁moder	-2047
cou	-2048
▁conte	-2049
▁censos	-2050
▁exec	-2051
rismo	-2052
▁esp	-2053
▁aqu	-2054
▁popular	-2055
▁comunas	-2056
ya	-2057
inhos	-2058
▁defin	-2059
▁leste	-2060
▁expres	-2061
hão	-2062
ética	-2063
▁mode	-2064
▁clube	-2065
▁homena	-2066
▁estrutura	-2067
▁urb	-2068
ições	-2069
▁partici	-2070
▁Ao	-2071
ridade	-2072
dições	-2073
▁freguesias	-2074
▁indica	-2075
▁melhor	-2076
▁terc	-2077
ério	-2078
áb	-2079
âm	-2080
▁er	-2081
▁prec	-2082
▁Ara	-2083
manos	-2084
▁Suíça	-2085
▁nível	-2086
▁gên	-2087
▁fol	-2088
▁187	-2089
anti	-2090
▁Sou	-2091
▁quem	-2092
▁porém	-2093
▁Dom	-2094
▁palavra	-2095
cultura	-2096
▁criada	-2097
ive	-2098
gares	-2099
▁even	-2100
cida	-2101
▁arquite	-2102
ivo	-2103
ime	-2104
tom	-2105
êmio	-2106
▁fin	-2107
▁Instituto	-2108
íveis	-2109
ys	-2110
ínio	-2111
▁Ama	-2112
▁pin	-2113
").	-2114
iou	-2115
tém	-2116
▁função	-2117
▁próprio	-2118
ores	-2119
▁der	-2120
BGE	-2121
ânico	-2122
▁Vale	-2123
gon	-2124
▁ri	-2125
▁condados	-2126
▁mate	-2127
▁próx	-2128
▁)	-2129
ue	-2130
▁Alemanha	-2131
▁colon	-2132
▁romana	-2133
▁ór	-2134
▁origin	-2135
peti	-2136
censo	-2137
▁Econ	-2138
▁cien	-2139
▁francesa	-2140
▁envol	-2141
▁informa	-2142
itos	-2143
logia	-2144
▁deu	-2145
▁utilizado	-2146
▁escre	-2147
▁membros	-2148
▁categoria	-2149
▁importantes	-2150
ps	-2151
▁aproximadamente	-2152
lt	-2153
▁fra	-2154
ódi	-2155
ibil	-2156
▁lista	-2157
ces	-2158
tida	-2159
inema	-2160
▁deri	-2161
iber	-2162
▁XIX	-2163
▁áreas	-2164
mental	-2165
▁Nossa	-2166
tón	-2167
▁agre	-2168
▁instru	-2169
▁bi	-2170
mada	-2171
▁data	-2172
ler	-2173
bel	-2174
▁formação	-2175
▁localidade	-2176
▁Lou	-2177
▁Fern	-2178
ian	-2179
▁quím	-2180
cil	-2181
▁186	-2182
▁Carlos	-2183
▁inglês	-2184
dão	-2185
▁quil	-2186
íde	-2187
▁atin	-2188
▁tre	-2189
▁desa	-2190
▁183	-2191
▁her	-2192
▁regiões	-2193
▁disso	-2194
rimento	-2195
▁identi	-2196
▁Minas	-2197
▁Está	-2198
▁Terra	-2199
inais	-2200
▁povoado	-2201
ocais	-2202
int	-2203
▁particip	-2204
▁pla	-2205
▁Região	-2206
▁mol	-2207
cie	-2208
feri	-2209
▁pen	-2210
▁tanto	-2211
íli	-2212
âmb	-2213
tália	-2214
▁papel	-2215
▁movimento	-2216
▁altura	-2217
▁guerra	-2218
▁Roc	-2219
▁aju	-2220
▁padr	-2221
▁distin	-2222
▁animais	-2223
▁francês	-2224
tur	-2225
▁refere	-2226
▁separa	-2227
▁Ori	-2228
▁jogo	-2229
▁Castel	-2230
▁liga	-2231
trou	-2232
árias	-2233
▁Depois	-2234
endário	-2235
▁ga	-2236
ergia	-2237
▁respons	-2238
rista	-2239
▁rede	-2240
âmara	-2241
pério	-2242
▁0,	-2243
▁pl	-2244
▁Mal	-2245
▁cargo	-2246
▁opera	-2247
50	-2248
est	-2249
asse	-2250
▁linha	-2251
zes	-2252
▁aber	-2253
riores	-2254
▁Castela	-2255
▁registada	-2256
▁Ing	-2257
▁proble	-2258
tudo	-2259
▁Bor	-2260
▁descober	-2261
▁bairro	-2262
iam	-2263
▁último	-2264
▁ama	-2265
▁Rec	-2266
▁Sé	-2267
▁inicial	-2268
our	-2269
▁varia	-2270
▁letra	-2271
▁100	-2272
▁Cruz	-2273
ivil	-2274
▁terminou	-2275
bur	-2276
▁Hen	-2277
▁at	-2278
▁ens	-2279
idi	-2280
▁Ru	-2281
cam	-2282
quista	-2283
▁interior	-2284
nia	-2285
visão	-2286
▁Tor	-2287
▁figu	-2288
▁rá	-2289
áss	-2290
▁elei	-2291
▁Bel	-2292
▁Paul	-2293
▁meta	-2294
▁professor	-2295
▁Freguesias	-2296
18	-2297
▁lan	-2298
vesti	-2299
plos	-2300
forme	-2301
▁(2011	-2302
terra	-2303
▁Localiza	-2304
cito	-2305
segundo	-2306
▁Ce	-2307
rinha	-2308
▁ficou	-2309
▁espaço	-2310
dá	-2311
▁Ín	-2312
▁Her	-2313
dendo	-2314
▁extre	-2315
▁extens	-2316
▁fundada	-2317
▁Jul	-2318
▁determina	-2319
ográ	-2320
mais	-2321
▁cél	-2322
▁Conf	-2323
▁docu	-2324
terna	-2325
▁anterior	-2326
gó	-2327
▁uni	-2328
tis	-2329
▁aconte	-2330
▁projeto	-2331
ducação	-2332
enos	-2333
ácio	-2334
ár	-2335
▁huma	-2336
▁Centro	-2337
▁continu	-2338
gis	-2339
▁mic	-2340
vio	-2341
▁Gr	-2342
▁Reino	-2343
▁Dist	-2344
izadas	-2345
▁semelh	-2346
bus	-2347
▁Casa	-2348
▁único	-2349
inte	-2350
▁teo	-2351
▁Copa	-2352
▁características	-2353
▁normal	-2354
▁nasceu	-2355
▁possível	-2356
amp	-2357
icamente	-2358
ãe	-2359
▁filhos	-2360
▁reconheci	-2361
▁forte	-2362
▁Ad	-2363
▁euro	-2364
volução	-2365
▁espan	-2366
▁feito	-2367
▁resid	-2368
▁Lombar	-2369
ficação	-2370
ardo	-2371
▁Ant	-2372
▁pal	-2373
Al	-2374
▁2013,	-2375
ile	-2376
The	-2377
irma	-2378
▁univers	-2379
dre	-2380
▁50	-2381
▁posição	-2382
pela	-2383
trim	-2384
▁igreja	-2385
posta	-2386
inta	-2387
▁social	-2388
▁empre	-2389
cea	-2390
▁ep	-2391
▁Gerais	-2392
▁Rib	-2393
bilidade	-2394
▁atualmente	-2395
▁cole	-2396
ole	-2397
ódigo	-2398
▁filha	-2399
▁deus	-2400
▁bandeira	-2401
▁1,	-2402
▁reforma	-2403
12	-2404
▁Mes	-2405
▁divisão	-2406
▁lar	-2407
▁valor	-2408
10	-2409
ture	-2410
áveis	-2411
respon	-2412
▁grupos	-2413
orge	-2414
▁Bas	-2415
▁2,	-2416
▁demo	-2417
▁longi	-2418
cima	-2419
▁Pri	-2420
▁Existe	-2421
▁governa	-2422
frica	-2423
ville	-2424
eles	-2425
ly	-2426
▁japon	-2427
▁zona	-2428
▁XX	-2429
▁Desde	-2430
gão	-2431
▁estadual	-2432
▁medi	-2433
▁campo	-2434
ricultura	-2435
▁infe	-2436
rom	-2437
▁tes	-2438
▁denominada	-2439
tron	-2440
ger	-2441
▁Gre	-2442
▁[	-2443
▁exc	-2444
▁brasileira	-2445
▁Partido	-2446
▁quanti	-2447
▁Ve	-2448
▁Je	-2449
▁Cer	-2450
▁resta	-2451
▁interpre	-2452
▁ó	-2453
▁Ordem	-2454
▁Cul	-2455
talha	-2456
▁menor	-2457
▁3.	-2458
▁latitude	-2459
▁indús	-2460
▁original	-2461
tú	-2462
unha	-2463
▁lugares	-2464
▁Silva	-2465
▁sex	-2466
▁profiss	-2467
▁público	-2468
▁Pre	-2469
▁estando	-2470
ião	-2471
enh	-2472
▁Clube	-2473
▁Internacional	-2474
▁ín	-2475
▁Pon	-2476
▁homenagem	-2477
mentar	-2478
▁Cl	-2479
ático	-2480
▁ata	-2481
▁causa	-2482
▁verdade	-2483
▁bastante	-2484
eb	-2485
▁Cana	-2486
▁Real	-2487
▁locais	-2488
▁fru	-2489
▁experi	-2490
cep	-2491
ranca	-2492
▁Mic	-2493
▁Ac	-2494
dico	-2495
▁III	-2496
izou	-2497
ações	-2498
▁Itália	-2499
oro	-2500
▁the	-2501
▁membro	-2502
▁África	-2503
▁Hu	-2504
▁Emb	-2505
▁lhe	-2506
▁transforma	-2507
▁gol	-2508
▁Assim	-2509
vid	-2510
▁modo	-2511
▁mostra	-2512
▁Atualmente	-2513
▁crí	-2514
marca	-2515
▁hu	-2516
▁circ	-2517
▁jogos	-2518
▁central	-2519
ricos	-2520
quisa	-2521
▁arte	-2522
▁Ag	-2523
30	-2524
cente	-2525
gráfica	-2526
▁caracte	-2527
."	-2528
úde	-2529
ws	-2530
▁quanto	-2531
▁grego	-2532
▁economia	-2533
▁aba	-2534
▁cel	-2535
radas	-2536
▁Ci	-2537
▁População	-2538
cem	-2539
▁estilo	-2540
▁40	-2541
▁semanas	-2542
4)	-2543
▁alemão	-2544
ãs	-2545
▁arma	-2546
▁energia	-2547
▁Apesar	-2548
La	-2549
▁Inte	-2550
▁longitude	-2551
▁Vic	-2552
íb	-2553
▁única	-2554
▁Lombardia	-2555
▁correspon	-2556
▁ol	-2557
uns	-2558
gir	-2559
rvo	-2560
ônica	-2561
▁alta	-2562
▁sus	-2563
▁escola	-2564
▁viz	-2565
▁seis	-2566
cra	-2567
▁joga	-2568
▁melho	-2569
▁Alex	-2570
▁(2011),	-2571
▁pequena	-2572
▁Pen	-2573
▁Campeonato	-2574
▁indiv	-2575
▁az	-2576
ciedade	-2577
▁econôm	-2578
ang	-2579
▁arti	-2580
ft	-2581
od	-2582
▁184	-2583
▁Sch	-2584
urso	-2585
▁Dire	-2586
fei	-2587
▁fato	-2588
ionais	-2589
su	-2590
▁Antônio	-2591
tenção	-2592
▁Prim	-2593
▁Papa	-2594
encia	-2595
íg	-2596
▁TV	-2597
ricas	-2598
mentação	-2599
▁composta	-2600
dap	-2601
▁John	-2602
▁equipe	-2603
▁pré	-2604
cidos	-2605
▁explo	-2606
ende	-2607
▁desc	-2608
▁Paris	-2609
▁retor	-2610
ílias	-2611
▁Gon	-2612
▁força	-2613
▁última	-2614
▁bis	-2615
▁âmb	-2616
▁Castelo	-2617
▁alto	-2618
▁edição	-2619
▁Império	-2620
▁Já	-2621
iais	-2622
▁estudos	-2623
▁Martin	-2624
tistas	-2625
▁vig	-2626
▁elementos	-2627
▁competi	-2628
vação	-2629
▁pequeno	-2630
▁filmes	-2631
▁atividades	-2632
ético	-2633
▁fora	-2634
▁IBGE	-2635
▁Cantão	-2636
idos	-2637
ídos	-2638
-19	-2639
▁montan	-2640
ware	-2641
arda	-2642
▁contri	-2643
bes	-2644
radores	-2645
▁fase	-2646
▁2021),	-2647
dice	-2648
iguel	-2649
▁nomes	-2650
▁Há	-2651
sen	-2652
idas	-2653
lada	-2654
▁militar	-2655
mando	-2656
tus	-2657
▁produtos	-2658
▁Mi	-2659
▁nume	-2660
▁Gover	-2661
▁brit	-2662
▁tipos	-2663
sol	-2664
▁2000).	-2665
jos	-2666
▁temperatura	-2667
▁posteriormente	-2668
▁âmbito	-2669
augu	-2670
estão	-2671
▁Economia	-2672
veram	-2673
cidental	-2674
emin	-2675
▁meses	-2676
▁existem	-2677
ple	-2678
▁lançado	-2679
▁usada	-2680
▁inclui	-2681
rel	-2682
▁Cata	-2683
▁Miguel	-2684
▁Dou	-2685
▁Div	-2686
▁Oliv	-2687
rique	-2688
▁Confina	-2689
▁hidro	-2690
▁pontos	-2691
▁inaugu	-2692
▁presença	-2693
▁Va	-2694
▁etc	-2695
▁considerada	-2696
ume	-2697
▁logo	-2698
▁ofere	-2699
▁responsável	-2700
anças	-2701
eu	-2702
▁()	-2703
crição	-2704
ficas	-2705
rus	-2706
▁Aca	-2707
▁interna	-2708
▁torna	-2709
▁internacional	-2710
▁dig	-2711
▁vem	-2712
▁presente	-2713
ficos	-2714
lares	-2715
▁tais	-2716
diu	-2717
eo	-2718
▁termos	-2719
▁investi	-2720
):	-2721
ks	-2722
▁extra	-2723
▁morreu	-2724
▁somente	-2725
▁gen	-2726
▁porque	-2727
▁Inf	-2728
▁própria	-2729
▁revista	-2730
riga	-2731
▁possuem	-2732
14	-2733
▁Pu	-2734
ércio	-2735
▁escrito	-2736
Ca	-2737
▁Ste	-2738
rão	-2739
▁execu	-2740
pão	-2741
çu	-2742
ército	-2743
▁clima	-2744
▁comercial	-2745
▁Não	-2746
▁superior	-2747
▁Câmara	-2748
▁cinema	-2749
▁Segunda	-2750
25	-2751
▁Si	-2752
▁Costa	-2753
▁vari	-2754
cção	-2755
▁dem	-2756
▁verm	-2757
▁Comun	-2758
velmente	-2759
teiro	-2760
▁árvo	-2761
▁Manuel	-2762
▁=	-2763
▁Campo	-2764
▁Antón	-2765
▁gênero	-2766
glia	-2767
laterra	-2768
▁especialmente	-2769
▁bus	-2770
ceae	-2771
vela	-2772
tórios	-2773
▁ferro	-2774
▁public	-2775
▁mom	-2776
▁coloca	-2777
16	-2778
fil	-2779
hado	-2780
▁ocupa	-2781
▁Ed	-2782
imin	-2783
▁cientí	-2784
ban	-2785
▁sentido	-2786
▁(18	-2787
▁deci	-2788
all	-2789
ner	-2790
▁religi	-2791
ná	-2792
eses	-2793
fonso	-2794
40	-2795
cor	-2796
gres	-2797
▁quilô	-2798
todo	-2799
icais	-2800
▁decre	-2801
▁(2007)	-2802
▁sistemas	-2803
▁primeiras	-2804
▁Inglaterra	-2805
▁plantas	-2806
▁direito	-2807
ória	-2808
▁Sol	-2809
▁mãe	-2810
▁acab	-2811
▁nave	-2812
▁Municipal	-2813
▁ilhas	-2814
net	-2815
riais	-2816
▁agricultura	-2817
fé	-2818
rinho	-2819
▁acesso	-2820
▁distância	-2821
anta	-2822
▁Ka	-2823
▁regu	-2824
ganização	-2825
pital	-2826
▁partes	-2827
▁Ben	-2828
estiv	-2829
▁crescimento	-2830
▁Er	-2831
▁op	-2832
Ma	-2833
tto	-2834
tários	-2835
▁Nob	-2836
▁Ros	-2837
▁prova	-2838
▁estudo	-2839
▁composto	-2840
▁atividade	-2841
vão	-2842
▁cuja	-2843
amento	-2844
▁chegou	-2845
▁António	-2846
▁serviços	-2847
▁exer	-2848
▁autor	-2849
▁denominação	-2850
▁Ela	-2851
▁Estadual	-2852
28	-2853
inação	-2854
▁personagem	-2855
▁fab	-2856
▁mulher	-2857
▁Federal	-2858
unca	-2859
metro	-2860
▁intro	-2861
ticamente	-2862
15	-2863
▁He	-2864
▁vege	-2865
▁direção	-2866
▁Gar	-2867
ônimo	-2868
▁casos	-2869
▁Associa	-2870
▁comprimento	-2871
13	-2872
pia	-2873
onas	-2874
manci	-2875
▁pessoa	-2876
pri	-2877
tio	-2878
berg	-2879
▁código	-2880
▁estação	-2881
quele	-2882
▁famílias	-2883
▁cla	-2884
▁4.	-2885
▁acima	-2886
▁2010,	-2887
17	-2888
▁pas	-2889
▁adap	-2890
gro	-2891
▁Jes	-2892
▁diri	-2893
▁assum	-2894
ty	-2895
Es	-2896
entra	-2897
ficado	-2898
▁k	-2899
vers	-2900
lhe	-2901
ôni	-2902
cadas	-2903
▁Alguns	-2904
▁situada	-2905
▁alte	-2906
portância	-2907
▁capacidade	-2908
usão	-2909
▁Mundo	-2910
▁feita	-2911
tiu	-2912
▁numeração	-2913
22	-2914
tta	-2915
tária	-2916
▁referência	-2917
lin	-2918
rino	-2919
▁símb	-2920
▁Men	-2921
▁Santos	-2922
cios	-2923
into	-2924
▁igu	-2925
emonte	-2926
▁flu	-2927
tólica	-2928
▁Pos	-2929
ênio	-2930
▁Glo	-2931
▁televisão	-2932
▁Res	-2933
▁tenha	-2934
▁manda	-2935
gora	-2936
▁rios	-2937
▁solo	-2938
▁conquista	-2939
div	-2940
gido	-2941
igra	-2942
ges	-2943
entou	-2944
▁Rober	-2945
fre	-2946
▁and	-2947
▁Alem	-2948
jec	-2949
pal	-2950
resse	-2951
▁sele	-2952
▁Ir	-2953
écia	-2954
▁princ	-2955
tística	-2956
riamente	-2957
uncia	-2958
elec	-2959
ill	-2960
▁nenh	-2961
60	-2962
▁Pia	-2963
▁Novo	-2964
ontes	-2965
▁irmão	-2966
ursos	-2967
gus	-2968
triz	-2969
riano	-2970
▁cola	-2971
▁superfíci	-2972
jam	-2973
fício	-2974
rol	-2975
▁observa	-2976
tadas	-2977
▁curso	-2978
▁desse	-2979
▁Piemonte	-2980
▁fos	-2981
▁engen	-2982
▁Calendário	-2983
▁Mais	-2984
▁dessa	-2985
▁3,	-2986
▁pesquisa	-2987
▁Vida	-2988
▁conhe	-2989
▁inver	-2990
▁europe	-2991
eli	-2992
ustri	-2993
▁utilizada	-2994
çar	-2995
itação	-2996
▁próximo	-2997
▁particular	-2998
▁cé	-2999
▁oficialmente	-3000
▁Luís	-3001
▁formas	-3002
tua	-3003
ouve	-3004
vador	-3005
▁unidade	-3006
▁Constitu	-3007
▁normalmente	-3008
▁línguas	-3009
dura	-3010
▁180	-3011
▁homem	-3012
hol	-3013
ela	-3014
▁tecn	-3015
▁inse	-3016
▁Bahia	-3017
24	-3018
tol	-3019
▁Existem	-3020
uz	-3021
heres	-3022
▁peri	-3023
▁livros	-3024
▁teoria	-3025
americano	-3026
uno	-3027
sões	-3028
▁campe	-3029
reia	-3030
▁permane	-3031
lau	-3032
▁Conc	-3033
polita	-3034
▁massa	-3035
▁Brasileiro	-3036
▁águas	-3037
ES	-3038
▁impe	-3039
▁Afonso	-3040
▁ocorreu	-3041
▁sofre	-3042
▁Mos	-3043
▁compan	-3044
ique	-3045
izando	-3046
▁importância	-3047
▁resultado	-3048
gna	-3049
▁Lago	-3050
▁civil	-3051
23	-3052
▁Ven	-3053
étrica	-3054
▁ganhou	-3055
uí	-3056
▁mercado	-3057
ficar	-3058
▁Deus	-3059
▁ensino	-3060
▁localiza	-3061
nça	-3062
culas	-3063
▁Bal	-3064
▁missão	-3065
heiro	-3066
▁Bi	-3067
ivos	-3068
▁incor	-3069
▁Embora	-3070
ht	-3071
▁chu	-3072
▁células	-3073
▁partido	-3074
del	-3075
▁cabe	-3076
ley	-3077
▁dedica	-3078
br	-3079
ciou	-3080
áticas	-3081
cebeu	-3082
ália	-3083
▁algo	-3084
tendia	-3085
▁estados	-3086
▁situa	-3087
▁Saint	-3088
▁receb	-3089
▁Sam	-3090
ônico	-3091
▁Ponte	-3092
vendo	-3093
▁pertence	-3094
ídu	-3095
▁Char	-3096
ológico	-3097
▁planta	-3098
▁objetivo	-3099
▁Aus	-3100
▁territo	-3101
80	-3102
▁ves	-3103
iver	-3104
53	-3105
▁perto	-3106
▁funções	-3107
▁trabalhos	-3108
▁Wa	-3109
posa	-3110
▁ouro	-3111
tadores	-3112
tz	-3113
▁nomeado	-3114
▁Eu	-3115
memb	-3116
▁Har	-3117
▁2010	-3118
turais	-3119
▁aus	-3120
▁atribu	-3121
▁frequentemente	-3122
▁Sim	-3123
▁Conselho	-3124
ong	-3125
vor	-3126
tureza	-3127
▁derro	-3128
▁problemas	-3129
▁juntamente	-3130
▁Vol	-3131
▁histo	-3132
▁latim	-3133
lamento	-3134
quência	-3135
70	-3136
tuto	-3137
▁Censo	-3138
▁emanci	-3139
▁limita	-3140
▁mundial	-3141
▁escritor	-3142
lico	-3143
▁mis	-3144
eneral	-3145
▁teria	-3146
▁Presidente	-3147
▁Lond	-3148
▁compre	-3149
▁lingua	-3150
▁x	-3151
▁equipa	-3152
▁vas	-3153
▁estes	-3154
ólo	-3155
▁Jesus	-3156
óm	-3157
oeste	-3158
▁marca	-3159
▁esquer	-3160
▁madeira	-3161
▁quilômetros	-3162
▁Tur	-3163
▁Japão	-3164
▁indíg	-3165
▁passando	-3166
perador	-3167
bor	-3168
▁mec	-3169
▁popul	-3170
▁dispon	-3171
tividade	-3172
▁aumento	-3173
▁concentra	-3174
arra	-3175
▁Pan	-3176
▁Alto	-3177
▁taman	-3178
▁apesar	-3179
uros	-3180
▁trabalha	-3181
▁Sh	-3182
▁Tom	-3183
▁mudan	-3184
▁Paraná	-3185
▁tempos	-3186
▁material	-3187
peração	-3188
▁w	-3189
demia	-3190
áticos	-3191
▁controle	-3192
ceram	-3193
▁diretor	-3194
▁dado	-3195
▁neste	-3196
▁Catarina	-3197
▁Sta	-3198
inheiro	-3199
▁novamente	-3200
',	-3201
ign	-3202
bs	-3203
▁dá	-3204
▁serviço	-3205
▁relacion	-3206
▁homens	-3207
▁visita	-3208
era	-3209
pida	-3210
iás	-3211
ted	-3212
▁Trans	-3213
▁facil	-3214
mana	-3215
▁especí	-3216
▁gén	-3217
▁cujo	-3218
nam	-3219
icações	-3220
▁eleições	-3221
33	-3222
▁decreto	-3223
essos	-3224
▁elevado	-3225
▁superfície	-3226
inhas	-3227
▁4,	-3228
lago	-3229
▁peix	-3230
bita	-3231
▁quantidade	-3232
iar	-3233
ustrial	-3234
▁metade	-3235
haria	-3236
nes	-3237
▁Até	-3238
▁costa	-3239
▁condições	-3240
6)	-3241
▁Villa	-3242
▁Rei	-3243
▁Escola	-3244
▁Alexand	-3245
▁formado	-3246
▁extensão	-3247
▁encontram	-3248
▁Gru	-3249
▁adqui	-3250
▁tenta	-3251
▁musical	-3252
▁pequenas	-3253
▁Wal	-3254
▁elas	-3255
ística	-3256
▁reino	-3257
▁/	-3258
▁fei	-3259
▁acom	-3260
▁nunca	-3261
tropolita	-3262
▁indústria	-3263
▁alcan	-3264
▁conce	-3265
▁gal	-3266
feitos	-3267
▁pertencente	-3268
▁«	-3269
▁ví	-3270
▁Distrito	-3271
uiu	-3272
hada	-3273
▁ambos	-3274
▁existência	-3275
timo	-3276
▁organização	-3277
pou	-3278
▁reun	-3279
gramas	-3280
▁consiste	-3281
oa	-3282
▁cob	-3283
▁fec	-3284
▁incluem	-3285
▁distritos	-3286
▁gas	-3287
▁China	-3288
▁escrita	-3289
▁momento	-3290
▁promo	-3291
estival	-3292
ológica	-3293
icação	-3294
▁cláss	-3295
▁serem	-3296
ópol	-3297
▁Anti	-3298
▁exib	-3299
▁mante	-3300
▁Prêmio	-3301
▁portanto	-3302
▁tradição	-3303
▁Th	-3304
▁núcle	-3305
▁secre	-3306
▁conforme	-3307
▁conhecidos	-3308
▁vir	-3309
▁criar	-3310
▁tornando	-3311
▁influência	-3312
bate	-3313
▁mine	-3314
▁arqu	-3315
▁Verde	-3316
▁municipal	-3317
▁incorpo	-3318
timologia	-3319
No	-3320
▁Fl	-3321
▁rea	-3322
="	-3323
▁tradicional	-3324
▁60	-3325
▁Alemão	-3326
ival	-3327
zano	-3328
▁mudou	-3329
/20	-3330
▁Sant	-3331
▁baixo	-3332
gisla	-3333
▁Dia	-3334
▁reduz	-3335
ames	-3336
▁comércio	-3337
▁terceiro	-3338
▁costu	-3339
ídas	-3340
▁Essa	-3341
▁fede	-3342
▁liber	-3343
90	-3344
▁aldeia	-3345
▁Oliveira	-3346
▁ocas	-3347
▁margem	-3348
▁mês	-3349
▁sec	-3350
isões	-3351
▁conven	-3352
▁cultural	-3353
▁decla	-3354
▁av	-3355
▁ps	-3356
▁disco	-3357
▁mulheres	-3358
);	-3359
▁Geral	-3360
anc	-3361
▁Recebeu	-3362
ixas	-3363
rian	-3364
▁livre	-3365
▁modelo	-3366
▁empresas	-3367
▁Nobel	-3368
▁XVIII	-3369
38	-3370
cus	-3371
▁Fernando	-3372
▁estuda	-3373
▁figura	-3374
";	-3375
21	-3376
trada	-3377
dicina	-3378
riedade	-3379
▁Parque	-3380
▁deriva	-3381
▁Un	-3382
▁Sob	-3383
ópolis	-3384
▁Central	-3385
ónio	-3386
▁Bol	-3387
▁raz	-3388
quela	-3389
▁crist	-3390
rações	-3391
▁realizado	-3392
.,	-3393
27	-3394
▁mani	-3395
▁mito	-3396
▁ocor	-3397
▁Carac	-3398
▁ajuda	-3399
mea	-3400
tiz	-3401
▁frente	-3402
▁respec	-3403
▁elevada	-3404
▁ec	-3405
▁Abril	-3406
ribuição	-3407
▁cores	-3408
▁vice	-3409
úm	-3410
▁eletr	-3411
▁fonte	-3412
55	-3413
nar	-3414
▁velo	-3415
xico	-3416
▁Pie	-3417
ússia	-3418
▁classe	-3419
▁mal	-3420
▁maneira	-3421
xas	-3422
▁matem	-3423
▁Pla	-3424
▁princíp	-3425
ity	-3426
vens	-3427
▁dura	-3428
▁implan	-3429
plica	-3430
▁geográ	-3431
▁padrão	-3432
▁prática	-3433
▁expan	-3434
▁Compan	-3435
▁natureza	-3436
▁Dan	-3437
▁dou	-3438
ceano	-3439
▁estar	-3440
▁levou	-3441
▁Di	-3442
▁desmemb	-3443
çal	-3444
▁esposa	-3445
▁2003	-3446
doeste	-3447
manda	-3448
▁Bro	-3449
▁Lin	-3450
▁usu	-3451
tável	-3452
▁casas	-3453
▁Bre	-3454
▁nem	-3455
▁Sete	-3456
▁Portugues	-3457
▁Carreira	-3458
26	-3459
segu	-3460
36	-3461
▁Pes	-3462
▁80	-3463
▁palavras	-3464
FA	-3465
▁Liv	-3466
▁lide	-3467
▁contém	-3468
▁afirma	-3469
▁participou	-3470
fera	-3471
tero	-3472
▁Bur	-3473
tian	-3474
posto	-3475
emo	-3476
▁vul	-3477
osofia	-3478
▁estatuto	-3479
▁italiano	-3480
▁viol	-3481
▁hos	-3482
▁Alber	-3483
▁torno	-3484
▁fazendo	-3485
▁Brasileira	-3486
▁Tri	-3487
48	-3488
deias	-3489
▁aband	-3490
58	-3491
▁90	-3492
▁Torre	-3493
istério	-3494
▁desem	-3495
pado	-3496
emble	-3497
ky	-3498
▁Ti	-3499
▁capela	-3500
▁pequenos	-3501
▁publicado	-3502
▁Museu	-3503
▁pá	-3504
tale	-3505
wn	-3506
hes	-3507
ker	-3508
▁rele	-3509
dir	-3510
orda	-3511
▁vista	-3512
▁antigos	-3513
▁Bon	-3514
taram	-3515
dis	-3516
▁Ana	-3517
▁tão	-3518
▁conseguiu	-3519
▁constituído	-3520
▁luz	-3521
▁resol	-3522
culdade	-3523
▁tamanho	-3524
▁ambiente	-3525
telo	-3526
ladas	-3527
ncial	-3528
▁suce	-3529
▁comuns	-3530
ulos	-3531
▁margens	-3532
rinhos	-3533
Pa	-3534
Re	-3535
cando	-3536
▁fale	-3537
▁fen	-3538
45	-3539
▁Mel	-3540
porto	-3541
ímp	-3542
tidos	-3543
▁ação	-3544
▁iniciou	-3545
dy	-3546
▁Az	-3547
tiza	-3548
▁folhas	-3549
▁movi	-3550
ará	-3551
hor	-3552
qua	-3553
ídeos	-3554
▁dimin	-3555
▁escala	-3556
idida	-3557
▁Jogos	-3558
▁rus	-3559
▁2004	-3560
▁oito	-3561
▁produto	-3562
▁situado	-3563
▁Ang	-3564
▁hon	-3565
▁cele	-3566
▁imagem	-3567
quim	-3568
liam	-3569
▁Dec	-3570
▁jovem	-3571
▁acabou	-3572
▁naturais	-3573
▁Den	-3574
amília	-3575
redita	-3576
embleia	-3577
São	-3578
isó	-3579
ud	-3580
▁novas	-3581
▁prefeito	-3582
▁Tal	-3583
▁propor	-3584
▁expressão	-3585
52"	-3586
chos	-3587
ístico	-3588
leo	-3589
▁Sec	-3590
▁Jú	-3591
▁anal	-3592
▁ator	-3593
víncia	-3594
▁descre	-3595
▁profissional	-3596
âncias	-3597
omb	-3598
▁Rodri	-3599
▁colo	-3600
▁conserva	-3601
▁leva	-3602
▁recebe	-3603
▁5.	-3604
▁Flo	-3605
usti	-3606
▁anex	-3607
▁novos	-3608
▁bal	-3609
ítica	-3610
óquia	-3611
▁branco	-3612
▁qualidade	-3613
▁localidades	-3614
As	-3615
▁física	-3616
▁territorial	-3617
umb	-3618
▁Estre	-3619
▁Globo	-3620
▁apoio	-3621
▁seguida	-3622
▁5,	-3623
cendo	-3624
▁Ilha	-3625
▁agrí	-3626
ibilidade	-3627
Ar	-3628
tindo	-3629
▁°	-3630
bis	-3631
itor	-3632
▁cic	-3633
▁moe	-3634
▁Fran	-3635
▁abri	-3636
▁reti	-3637
ulares	-3638
▁2005	-3639
▁escreveu	-3640
▁introduz	-3641
▁participação	-3642
▁Governo	-3643
▁Esp	-3644
▁Conde	-3645
▁defini	-3646
íba	-3647
▁Pode	-3648
▁começ	-3649
▁abaixo	-3650
áu	-3651
▁libe	-3652
ku	-3653
wil	-3654
raes	-3655
▁traz	-3656
▁Pereira	-3657
▁36	-3658
47	-3659
rân	-3660
▁lago	-3661
xim	-3662
▁Desen	-3663
▁letras	-3664
▁histórico	-3665
õe	-3666
blio	-3667
▁Atlân	-3668
▁agora	-3669
▁construída	-3670
mado	-3671
▁Histó	-3672
▁canal	-3673
▁dar	-3674
▁permite	-3675
▁pesquis	-3676
ites	-3677
essão	-3678
▁resp	-3679
▁2006,	-3680
gica	-3681
▁formato	-3682
39	-3683
tismo	-3684
An	-3685
ung	-3686
▁Lan	-3687
▁milita	-3688
cias	-3689
▁azul	-3690
29	-3691
ândia	-3692
▁inclus	-3693
▁William	-3694
▁séculos	-3695
▁plu	-3696
venção	-3697
▁medida	-3698
ncipe	-3699
▁Associação	-3700
▁descoberta	-3701
▁propriedade	-3702
▁35	-3703
▁fala	-3704
▁IV	-3705
▁Unido	-3706
din	-3707
▁Che	-3708
▁Dez	-3709
orque	-3710
▁Hol	-3711
rita	-3712
licos	-3713
▁Salvador	-3714
▁inicialmente	-3715
izam	-3716
▁descon	-3717
▁Lista	-3718
▁Etimologia	-3719
▁aves	-3720
tró	-3721
▁Esse	-3722
▁Social	-3723
idido	-3724
rização	-3725
▁descend	-3726
▁linguagem	-3727
35	-3728
dora	-3729
▁2022	-3730
▁Gran	-3731
ward	-3732
eias	-3733
▁Mer	-3734
▁Europe	-3735
▁tinham	-3736
rael	-3737
ílio	-3738
▁hor	-3739
▁obte	-3740
▁Jorge	-3741
▁autom	-3742
▁deixou	-3743
▁sociedade	-3744
▁Cla	-3745
▁fosse	-3746
▁saúde	-3747
▁Iorque	-3748
ministro	-3749
▁últimos	-3750
dun	-3751
▁ale	-3752
▁Liga	-3753
▁ideia	-3754
mor	-3755
▁remo	-3756
trimónio	-3757
vang	-3758
▁Sele	-3759
cta	-3760
orregião	-3761
88	-3762
▁apa	-3763
▁lá	-3764
▁surgiu	-3765
▁Academia	-3766
49	-3767
ardim	-3768
▁Índia	-3769
▁chamados	-3770
▁indivídu	-3771
▁70	-3772
▁Tre	-3773
▁dele	-3774
▁abran	-3775
▁registra	-3776
idae	-3777
▁Del	-3778
▁ade	-3779
▁dominical	-3780
46	-3781
▁Nov	-3782
▁lig	-3783
gresso	-3784
▁predo	-3785
▁entrada	-3786
▁japonesa	-3787
▁administração	-3788
ité	-3789
▁Carval	-3790
▁esquerda	-3791
eição	-3792
▁aspec	-3793
▁famoso	-3794
op	-3795
▁Br	-3796
▁hip	-3797
▁conhecimento	-3798
volu	-3799
▁horas	-3800
▁dispos	-3801
▁impres	-3802
▁Juliano	-3803
▁independente	-3804
erg	-3805
inar	-3806
bia	-3807
▁chefe	-3808
gou	-3809
imos	-3810
▁Var	-3811
▁Londres	-3812
ismos	-3813
▁comb	-3814
▁verde	-3815
▁presid	-3816
▁tornar	-3817
ificação	-3818
▁Educação	-3819
len	-3820
▁2012	-3821
▁rodo	-3822
▁típ	-3823
cuária	-3824
▁Estendia	-3825
▁Domin	-3826
▁interesse	-3827
▁denominado	-3828
79	-3829
NA	-3830
▁trop	-3831
▁Castro	-3832
zi	-3833
ilar	-3834
xe	-3835
téria	-3836
fal	-3837
▁abs	-3838
▁Plan	-3839
▁Cultura	-3840
▁realizada	-3841
▁poe	-3842
ork	-3843
▁tratamento	-3844
▁Cap	-3845
▁formada	-3846
eios	-3847
ides	-3848
▁Fin	-3849
▁New	-3850
cidente	-3851
▁Canadá	-3852
▁espanhol	-3853
▁vin	-3854
▁Outubro	-3855
75	-3856
▁destaque	-3857
tte	-3858
lite	-3859
▁afe	-3860
▁top	-3861
▁2016,	-3862
CO	-3863
ixos	-3864
▁criou	-3865
redo	-3866
▁000	-3867
▁Reg	-3868
fici	-3869
ângu	-3870
▁bom	-3871
deiro	-3872
▁veio	-3873
mer	-3874
▁2000,	-3875
▁conceito	-3876
como	-3877
gados	-3878
▁isto	-3879
▁passado	-3880
ôs	-3881
▁líder	-3882
▁médio	-3883
▁distribu	-3884
usa	-3885
▁meados	-3886
▁funcion	-3887
bá	-3888
anda	-3889
▁exce	-3890
itivo	-3891
▁estru	-3892
▁Hel	-3893
▁candida	-3894
▁pública	-3895
▁originalmente	-3896
”,	-3897
tres	-3898
issões	-3899
by	-3900
gias	-3901
imbra	-3902
álise	-3903
▁contr	-3904
▁descobri	-3905
1)	-3906
▁demons	-3907
▁personagens	-3908
▁recursos	-3909
76	-3910
íns	-3911
▁6,	-3912
cialmente	-3913
▁fundação	-3914
▁Sin	-3915
▁México	-3916
▁crianças	-3917
▁mí	-3918
▁Fonte	-3919
ac	-3920
▁2005,	-3921
ds	-3922
▁Enc	-3923
hando	-3924
tantes	-3925
▁texto	-3926
gentina	-3927
eza	-3928
olos	-3929
▁Maio	-3930
▁País	-3931
▁longa	-3932
▁agra	-3933
▁contrib	-3934
gumas	-3935
▁Julho	-3936
▁Portuguesa	-3937
ésar	-3938
▁alfa	-3939
▁estas	-3940
teca	-3941
ivamente	-3942
DD	-3943
sem	-3944
▁vai	-3945
▁estavam	-3946
tropolitana	-3947
▁adic	-3948
▁repro	-3949
▁subst	-3950
▁usados	-3951
▁química	-3952
▁transporte	-3953
mia	-3954
▁Pas	-3955
▁exter	-3956
▁cabeça	-3957
▁símbolo	-3958
▁depu	-3959
▁envia	-3960
▁religios	-3961
didos	-3962
▁doença	-3963
▁desempen	-3964
fos	-3965
▁amare	-3966
▁forças	-3967
▁Henrique	-3968
dimento	-3969
▁intens	-3970
vin	-3971
▁("52"	-3972
▁Augus	-3973
▁eventos	-3974
▁Ph	-3975
ider	-3976
▁bra	-3977
gular	-3978
./	-3979
44	-3980
ries	-3981
▁XVI	-3982
▁bel	-3983
írito	-3984
▁será	-3985
▁Norman	-3986
▁Seleção	-3987
anas	-3988
▁Vir	-3989
▁Rich	-3990
▁Ainda	-3991
▁deles	-3992
▁inspira	-3993
78	-3994
rez	-3995
▁Funda	-3996
▁depend	-3997
▁classificação	-3998
▁sho	-3999
▁cana	-4000
▁Cidade	-4001
▁construído	-4002
rup	-4003
▁dese	-4004
▁fazem	-4005
▁lançamento	-4006
▁velocidade	-4007
2)	-4008
▁começa	-4009
▁núcleo	-4010
▁Ciências	-4011
59	-4012
lor	-4013
ustria	-4014
▁fontes	-4015
▁designação	-4016
érea	-4017
▁grau	-4018
▁temporada	-4019
ot	-4020
isso	-4021
▁bil	-4022
▁cus	-4023
▁César	-4024
▁governador	-4025
▁semelhante	-4026
portes	-4027
▁atriz	-4028
▁dimen	-4029
▁voltou	-4030
osos	-4031
▁Tro	-4032
▁caval	-4033
▁Tr	-4034
adas	-4035
▁efe	-4036
▁Porém	-4037
▁perc	-4038
▁industrial	-4039
ash	-4040
▁Fu	-4041
▁Maran	-4042
▁humano	-4043
56	-4044
▁ul	-4045
▁recu	-4046
▁Ásia	-4047
entais	-4048
▁|	-4049
▁Filho	-4050
▁metal	-4051
lândia	-4052
▁ampla	-4053
izações	-4054
istema	-4055
ínsula	-4056
▁entrou	-4057
▁Vas	-4058
▁lic	-4059
▁Sebas	-4060
▁Desenvol	-4061
▁distribuição	-4062
▁time	-4063
▁melhores	-4064
86	-4065
▁Gol	-4066
▁diferente	-4067
▁algum	-4068
feitura	-4069
▁ingles	-4070
▁compara	-4071
▁procura	-4072
ier	-4073
iram	-4074
mação	-4075
▁foto	-4076
íncias	-4077
99	-4078
▁Estu	-4079
▁artes	-4080
▁teatro	-4081
▁computa	-4082
▁Primeira	-4083
igos	-4084
▁programas	-4085
▁Seus	-4086
▁Outros	-4087
estas	-4088
centes	-4089
▁busca	-4090
ick	-4091
▁lev	-4092
▁aten	-4093
tórias	-4094
▁técnica	-4095
gh	-4096
ese	-4097
dias	-4098
▁aer	-4099
ington	-4100
▁referi	-4101
▁Assembleia	-4102
▁Amb	-4103
▁son	-4104
▁baixa	-4105
▁nordeste	-4106
dena	-4107
▁Católica	-4108
▁Alm	-4109
▁aux	-4110
▁unidades	-4111
cla	-4112
▁Eles	-4113
lações	-4114
ting	-4115
▁(',	-4116
ensão	-4117
▁compu	-4118
▁sangue	-4119
▁vale	-4120
▁Braga	-4121
▁refle	-4122
37	-4123
roso	-4124
▁caminho	-4125
▁pressão	-4126
▁fundamental	-4127
▁ev	-4128
ares	-4129
ficial	-4130
▁provavelmente	-4131
ok	-4132
▁peças	-4133
▁Af	-4134
▁litera	-4135
▁+	-4136
▁Sub	-4137
▁anual	-4138
▁demais	-4139
ney	-4140
▁von	-4141
liano	-4142
CA	-4143
▁Grupo	-4144
▁comporta	-4145
▁On	-4146
▁ára	-4147
▁refe	-4148
▁versões	-4149
▁terceira	-4150
▁bacia	-4151
▁Sic	-4152
▁cita	-4153
organização	-4154
dunid	-4155
fícios	-4156
▁esses	-4157
▁dividida	-4158
Ro	-4159
âmica	-4160
▁ácido	-4161
▁sudoeste	-4162
▁comunicação	-4163
▁antigas	-4164
▁trabalhar	-4165
▁enf	-4166
▁canção	-4167
▁romano	-4168
▁acredita	-4169
lon	-4170
ínas	-4171
▁Dezembro	-4172
SA	-4173
ux	-4174
▁mem	-4175
▁prom	-4176
▁liter	-4177
▁redor	-4178
▁portugueses	-4179
▁prepara	-4180
42	-4181
chas	-4182
▁Joa	-4183
▁Tim	-4184
dente	-4185
enças	-4186
gadas	-4187
▁Lima	-4188
▁conver	-4189
▁exclus	-4190
▁humana	-4191
cionamento	-4192
▁Boa	-4193
▁Dis	-4194
▁contem	-4195
▁lançou	-4196
▁imperador	-4197
▁Gonçal	-4198
▁Ri	-4199
▁soft	-4200
▁trabalhou	-4201
lig	-4202
nten	-4203
tuais	-4204
▁ambi	-4205
missão	-4206
▁femin	-4207
▁agregada	-4208
98	-4209
sion	-4210
▁XVII	-4211
▁compon	-4212
▁Algumas	-4213
▁campeão	-4214
▁noroeste	-4215
bio	-4216
▁ox	-4217
▁Gui	-4218
órmula	-4219
▁pesca	-4220
▁baseado	-4221
entos	-4222
tanha	-4223
▁Beira	-4224
▁descri	-4225
▁efeito	-4226
43	-4227
▁aflu	-4228
ristas	-4229
▁direita	-4230
▁pessoal	-4231
▁podendo	-4232
▁Cou	-4233
▁Anton	-4234
rama	-4235
▁Mac	-4236
▁Mou	-4237
▁espacial	-4238
lic	-4239
▁7,	-4240
quina	-4241
▁multi	-4242
▁provo	-4243
▁aparece	-4244
▁independência	-4245
▁tex	-4246
▁Junho	-4247
▁Trabal	-4248
▁Coimbra	-4249
vidos	-4250
có	-4251
chi	-4252
nios	-4253
urgo	-4254
▁bio	-4255
▁Divisão	-4256
▁ligação	-4257
▁Ferreira	-4258
ut	-4259
edia	-4260
▁boa	-4261
▁defen	-4262
▁plane	-4263
▁Alegre	-4264
▁Castil	-4265
ionalmente	-4266
▁utilizados	-4267
plas	-4268
▁rom	-4269
▁bás	-4270
tional	-4271
▁refor	-4272
▁utiliza	-4273
▁literatura	-4274
neto	-4275
▁Cli	-4276
▁pedra	-4277
▁cru	-4278
lubes	-4279
▁Inic	-4280
▁festa	-4281
▁igual	-4282
gno	-4283
▁actual	-4284
▁género	-4285
tn	-4286
▁Jer	-4287
▁Mol	-4288
postas	-4289
agre	-4290
▁Gil	-4291
▁tom	-4292
▁armas	-4293
▁edifício	-4294
▁educação	-4295
▁situação	-4296
”.	-4297
bras	-4298
▁Oeste	-4299
▁equival	-4300
66	-4301
▁historia	-4302
▁Chris	-4303
▁povos	-4304
▁Mancha	-4305
▁Rússia	-4306
▁transmi	-4307
▁Isa	-4308
▁taxa	-4309
▁dividi	-4310
▁alterna	-4311
57	-4312
▁Mc	-4313
erto	-4314
▁Neste	-4315
▁episó	-4316
▁pensa	-4317
▁contrário	-4318
▁mó	-4319
▁Figu	-4320
mentais	-4321
▁exército	-4322
pp	-4323
enha	-4324
ford	-4325
▁houve	-4326
▁plano	-4327
▁Bandeira	-4328
▁Normandia	-4329
▁informações	-4330
vios	-4331
▁Calif	-4332
▁casou	-4333
▁micro	-4334
▁especi	-4335
▁direitos	-4336
úl	-4337
cão	-4338
éis	-4339
▁Camp	-4340
▁números	-4341
▁continua	-4342
":	-4343
lva	-4344
terísticas	-4345
gul	-4346
turo	-4347
▁2017,	-4348
▁Idade	-4349
uais	-4350
▁arre	-4351
▁esca	-4352
▁razão	-4353
yo	-4354
fes	-4355
▁diretamente	-4356
dras	-4357
trop	-4358
▁faixa	-4359
ológicos	-4360
▁Setembro	-4361
▁acompanha	-4362
▁modi	-4363
▁quarta	-4364
]]	-4365
▁FI	-4366
▁Hom	-4367
rosso	-4368
▁minu	-4369
▁Outras	-4370
▁estrang	-4371
óis	-4372
tava	-4373
umo	-4374
órnia	-4375
▁2004,	-4376
▁essen	-4377
▁poucos	-4378
▁estadunid	-4379
gli	-4380
lim	-4381
▁Ram	-4382
▁usando	-4383
▁volume	-4384
▁contexto	-4385
▁moradores	-4386
UA	-4387
nou	-4388
▁fis	-4389
▁Festival	-4390
▁ocupação	-4391
▁apresentam	-4392
reno	-4393
tiago	-4394
▁cruz	-4395
▁títulos	-4396
▁formando	-4397
▁propriedades	-4398
guai	-4399
▁grá	-4400
▁Rede	-4401
▁exis	-4402
cepção	-4403
▁dific	-4404
▁Agosto	-4405
▁imedia	-4406
▁sociais	-4407
▁valores	-4408
▁iso	-4409
▁pote	-4410
▁Estes	-4411
▁Romano	-4412
▁mandato	-4413
▁destes	-4414
▁Maranhão	-4415
▁passagem	-4416
▁Administra	-4417
▁be	-4418
▁pós	-4419
teral	-4420
▁Sí	-4421
elhos	-4422
▁quer	-4423
entado	-4424
▁quinta	-4425
▁humanos	-4426
▁casamento	-4427
SP	-4428
▁comando	-4429
▁Faculdade	-4430
ipe	-4431
ioces	-4432
▁chin	-4433
▁elemento	-4434
▁Av	-4435
▁forne	-4436
▁assass	-4437
rena	-4438
▁bate	-4439
▁enti	-4440
▁guitar	-4441
▁predomin	-4442
▁baseada	-4443
art	-4444
iso	-4445
▁Cabo	-4446
▁arque	-4447
▁romance	-4448
ânea	-4449
▁jog	-4450
...	-4451
▁48	-4452
bado	-4453
atual	-4454
▁Barra	-4455
▁condição	-4456
▁conhecidas	-4457
▁Bru	-4458
▁Han	-4459
▁chegar	-4460
▁artistas	-4461
▁vermelho	-4462
▁militares	-4463
▁necessário	-4464
95	-4465
han	-4466
ello	-4467
▁().	-4468
▁Suas	-4469
▁adul	-4470
▁confli	-4471
▁urbana	-4472
▁efeitos	-4473
▁constante	-4474
erv	-4475
madas	-4476
▁domínio	-4477
▁menores	-4478
ícia	-4479
▁poeta	-4480
▁destina	-4481
▁Paulista	-4482
31	-4483
si	-4484
áx	-4485
▁Supe	-4486
▁Março	-4487
▁característica	-4488
32	-4489
▁2006	-4490
▁competição	-4491
▁Características	-4492
▁Desenvolvimento	-4493
ecer	-4494
▁Bis	-4495
▁dando	-4496
▁Direito	-4497
uri	-4498
égio	-4499
▁décadas	-4500
▁fabrica	-4501
3)	-4502
osas	-4503
▁ris	-4504
▁David	-4505
▁restaura	-4506
34	-4507
Ba	-4508
▁dor	-4509
▁veí	-4510
▁peça	-4511
unciou	-4512
▁destru	-4513
igrantes	-4514
▁[[	-4515
plic	-4516
tião	-4517
▁Gua	-4518
▁evento	-4519
▁músicas	-4520
▁rádio	-4521
▁corrente	-4522
▁indígenas	-4523
cro	-4524
▁Edi	-4525
▁Mus	-4526
▁histórias	-4527
77	-4528
▁Ferro	-4529
▁corte	-4530
▁protes	-4531
tín	-4532
▁Ministério	-4533
eida	-4534
▁bol	-4535
▁usar	-4536
▁mag	-4537
▁objeto	-4538
▁Charles	-4539
▁telefon	-4540
▁regional	-4541
▁Branco	-4542
▁árvore	-4543
▁populosa	-4544
▁38	-4545
▁carta	-4546
agregada	-4547
▁contava	-4548
▁fundador	-4549
▁Pin	-4550
▁Bras	-4551
▁esco	-4552
uito	-4553
▁Cre	-4554
▁Ger	-4555
▁passaram	-4556
▁Histórico	-4557
tti	-4558
▁mm	-4559
▁Isso	-4560
▁exist	-4561
▁órgão	-4562
▁encontrado	-4563
vez	-4564
teis	-4565
ânicos	-4566
▁porto	-4567
Sa	-4568
ny	-4569
zia	-4570
gueira	-4571
▁general	-4572
▁compositor	-4573
68	-4574
bos	-4575
gam	-4576
dência	-4577
▁religião	-4578
▁vigor	-4579
▁relações	-4580
dez	-4581
▁CD	-4582
▁ami	-4583
gança	-4584
nambu	-4585
▁viria	-4586
vidas	-4587
▁Mata	-4588
▁James	-4589
▁câ	-4590
rosa	-4591
▁destaca	-4592
mios	-4593
▁surgi	-4594
▁encontrados	-4595
ms	-4596
▁Lim	-4597
▁disputa	-4598
▁Argentina	-4599
▁6.	-4600
▁500	-4601
▁tupi	-4602
▁visto	-4603
▁linhas	-4604
▁sobrev	-4605
▁Militar	-4606
riana	-4607
▁caça	-4608
▁Dados	-4609
▁Sousa	-4610
▁grega	-4611
▁obteve	-4612
▁inferior	-4613
▁províncias	-4614
ún	-4615
inou	-4616
▁rock	-4617
adores	-4618
▁Estatística	-4619
ane	-4620
água	-4621
▁Perte	-4622
▁medie	-4623
▁Califórnia	-4624
ed	-4625
▁dó	-4626
▁Fun	-4627
uitos	-4628
vista	-4629
▁Santiago	-4630
▁reorganização	-4631
▁Sar	-4632
▁pul	-4633
▁Espe	-4634
▁passar	-4635
ficiente	-4636
▁retra	-4637
▁serra	-4638
▁sinal	-4639
▁dificul	-4640
▁moderna	-4641
▁Sebastião	-4642
▁materiais	-4643
▁dista	-4644
▁seguir	-4645
▁precisa	-4646
▁tiveram	-4647
▁2003,	-4648
▁Colle	-4649
▁financ	-4650
▁Vicente	-4651
ment	-4652
andes	-4653
cóp	-4654
▁Fra	-4655
▁amp	-4656
taria	-4657
▁ilus	-4658
deiras	-4659
▁paisa	-4660
▁chegada	-4661
▁Novembro	-4662
▁campanha	-4663
▁Companhia	-4664
vados	-4665
▁Decreto	-4666
▁relativamente	-4667
▁Devido	-4668
▁esteve	-4669
▁físico	-4670
▁batalha	-4671
▁pertencia	-4672
▁simplesmente	-4673
íram	-4674
▁tel	-4675
▁Andr	-4676
▁apos	-4677
▁peixes	-4678
▁Cada	-4679
itoral	-4680
▁Austr	-4681
▁vitória	-4682
ring	-4683
▁blo	-4684
▁Cara	-4685
▁Tren	-4686
▁pilo	-4687
▁essas	-4688
▁facto	-4689
▁objetos	-4690
▁informação	-4691
/19	-4692
▁Robert	-4693
41	-4694
▁8,	-4695
bres	-4696
▁Rua	-4697
ordena	-4698
▁Campos	-4699
▁adquiri	-4700
▁sobretudo	-4701
▁composição	-4702
vento	-4703
▁Regi	-4704
▁Bento	-4705
▁método	-4706
▁estadunidense	-4707
▁37	-4708
▁favor	-4709
▁dividido	-4710
▁encontrar	-4711
96	-4712
nces	-4713
istão	-4714
▁tudo	-4715
▁Goiás	-4716
▁escra	-4717
▁médico	-4718
▁ocidental	-4719
▁Amaz	-4720
▁sejam	-4721
▁extinto	-4722
yn	-4723
▁VI	-4724
gãos	-4725
obil	-4726
▁Pou	-4727
▁Antes	-4728
▁devem	-4729
▁igrejas	-4730
▁poderia	-4731
mann	-4732
▁ger	-4733
▁carb	-4734
mí	-4735
▁Fon	-4736
ímica	-4737
ângulo	-4738
▁Olímp	-4739
▁demonstra	-4740
▁Ouro	-4741
▁animal	-4742
▁constituída	-4743
▁Hoje	-4744
▁carre	-4745
▁praia	-4746
▁proce	-4747
ik	-4748
lino	-4749
▁extrema	-4750
▁nascido	-4751
▁estrada	-4752
▁jornalista	-4753
pada	-4754
▁182	-4755
cular	-4756
▁suge	-4757
▁Democ	-4758
▁nenhum	-4759
▁sudeste	-4760
▁companhia	-4761
▁arquitetura	-4762
▁Ib	-4763
cara	-4764
ling	-4765
orna	-4766
▁Exem	-4767
▁amor	-4768
▁idio	-4769
▁sono	-4770
▁verão	-4771
uda	-4772
▁britânico	-4773
vera	-4774
▁Mato	-4775
▁armaz	-4776
inastia	-4777
▁alguma	-4778
▁publicou	-4779
97	-4780
▁Fel	-4781
colas	-4782
▁famosa	-4783
▁emancipação	-4784
çú	-4785
óqu	-4786
▁subdiv	-4787
▁comarca	-4788
▁mistura	-4789
ribun	-4790
ustiça	-4791
▁rural	-4792
▁próxima	-4793
▁estruturas	-4794
▁tecnologia	-4795
▁Leon	-4796
▁zonas	-4797
▁software	-4798
▁32	-4799
▁cm	-4800
▁2001	-4801
▁muda	-4802
▁Caval	-4803
▁parce	-4804
glo	-4805
ish	-4806
ize	-4807
▁mão	-4808
didas	-4809
▁garan	-4810
▁turismo	-4811
▁frequência	-4812
lam	-4813
itais	-4814
▁afric	-4815
▁infan	-4816
eroporto	-4817
▁Carvalho	-4818
ocu	-4819
▁45	-4820
endas	-4821
▁disp	-4822
▁falta	-4823
▁oficiais	-4824
tidas	-4825
▁dada	-4826
▁Campan	-4827
▁inclusive	-4828
▁celular	-4829
▁federal	-4830
▁produtor	-4831
▁segurança	-4832
▁Bom	-4833
gamento	-4834
▁análise	-4835
shi	-4836
tern	-4837
▁exa	-4838
▁Entretanto	-4839
▁caracteriza	-4840
%.	-4841
▁Bern	-4842
▁2020,	-4843
▁Flores	-4844
trimônio	-4845
▁utilização	-4846
▁técnicas	-4847
▁46	-4848
▁Ind	-4849
tinga	-4850
▁Israel	-4851
▁conteú	-4852
▁nomeada	-4853
▁filosofia	-4854
▁computador	-4855
yuz	-4856
diano	-4857
▁apren	-4858
Mar	-4859
trás	-4860
▁Air	-4861
tagon	-4862
formes	-4863
ológicas	-4864
▁estrela	-4865
vir	-4866
▁Edu	-4867
ciano	-4868
▁Jean	-4869
amente	-4870
▁vence	-4871
pressão	-4872
▁Posteriormente	-4873
Os	-4874
uo	-4875
zer	-4876
alto	-4877
tinho	-4878
istros	-4879
▁2009,	-4880
▁2019,	-4881
▁Engen	-4882
viética	-4883
▁quarto	-4884
▁jogador	-4885
▁representação	-4886
pido	-4887
▁Pelo	-4888
▁doenças	-4889
▁escolas	-4890
▁totalmente	-4891
cl	-4892
▁trá	-4893
inada	-4894
▁coloc	-4895
▁prata	-4896
▁imagens	-4897
▁termina	-4898
▁processos	-4899
raestrutura	-4900
gé	-4901
▁pé	-4902
ncio	-4903
▁pais	-4904
▁Nesta	-4905
▁invas	-4906
▁parque	-4907
▁Batalha	-4908
PA	-4909
▁limites	-4910
▁Gi	-4911
sado	-4912
▁aven	-4913
▁escolh	-4914
pra	-4915
▁clubes	-4916
▁formou	-4917
ID	-4918
ld	-4919
ches	-4920
▁partida	-4921
▁estrelas	-4922
hu	-4923
deus	-4924
tein	-4925
▁2007,	-4926
▁histórica	-4927
▁significado	-4928
ji	-4929
dens	-4930
gito	-4931
▁York	-4932
ficada	-4933
▁Rodrigues	-4934
pin	-4935
▁Corre	-4936
▁viveu	-4937
iado	-4938
▁Bea	-4939
▁Rus	-4940
▁formam	-4941
ters	-4942
▁Que	-4943
▁defesa	-4944
▁Joaquim	-4945
▁montanhas	-4946
bó	-4947
ciado	-4948
▁Reli	-4949
▁variedade	-4950
▁voo	-4951
▁Prof	-4952
▁bene	-4953
▁nesse	-4954
▁atuais	-4955
▁mitologia	-4956
▁internacionais	-4957
▁Los	-4958
▁dif	-4959
▁branc	-4960
▁respeito	-4961
esia	-4962
burgo	-4963
▁fazia	-4964
▁interess	-4965
▁Rosa	-4966
▁cida	-4967
▁partí	-4968
85	-4969
ther	-4970
▁cr	-4971
▁cál	-4972
▁Ilhas	-4973
▁Soyuz	-4974
▁crítica	-4975
igo	-4976
dula	-4977
ácia	-4978
▁Americ	-4979
▁compar	-4980
ast	-4981
▁glo	-4982
▁conde	-4983
▁10,	-4984
▁Inc	-4985
▁monu	-4986
▁irmãos	-4987
▁jovens	-4988
tianismo	-4989
▁autores	-4990
▁Uru	-4991
▁fáb	-4992
▁Praia	-4993
blioteca	-4994
▁Ribeira	-4995
▁projetos	-4996
▁Atlântico	-4997
▁resultados	-4998
▁minutos	-4999
▁7.	-5000
▁asc	-5001
gador	-5002
▁gradu	-5003
▁posse	-5004
▁Grécia	-5005
▁árvores	-5006
▁Luiz	-5007
▁ultra	-5008
▁paróquia	-5009
zzo	-5010
▁estú	-5011
▁luta	-5012
rência	-5013
▁espec	-5014
▁extinção	-5015
▁políticas	-5016
▁publicada	-5017
▁instituição	-5018
ood	-5019
▁Sem	-5020
▁rou	-5021
ísica	-5022
▁traduz	-5023
ony	-5024
çúcar	-5025
▁pion	-5026
▁natal	-5027
▁consum	-5028
▁viagem	-5029
▁mudança	-5030
▁semente	-5031
▁Brit	-5032
▁Pass	-5033
táveis	-5034
▁castelo	-5035
▁legisla	-5036
iliar	-5037
▁enten	-5038
▁George	-5039
▁costuma	-5040
▁influencia	-5041
Por	-5042
dêm	-5043
tone	-5044
ômen	-5045
▁Bus	-5046
▁Gio	-5047
▁nota	-5048
ânicas	-5049
▁princípio	-5050
▁""	-5051
heira	-5052
▁disc	-5053
▁peso	-5054
▁pron	-5055
▁índice	-5056
▁lançada	-5057
▁Departamento	-5058
bul	-5059
lei	-5060
cados	-5061
ónimo	-5062
▁Jose	-5063
▁cará	-5064
▁nove	-5065
▁2022,	-5066
▁(2004)	-5067
▁Jardim	-5068
▁campos	-5069
92	-5070
grado	-5071
▁Nesse	-5072
▁dentre	-5073
▁Austrália	-5074
▁continuou	-5075
▁geográfica	-5076
isas	-5077
ouro	-5078
▁avi	-5079
térias	-5080
▁mensa	-5081
▁Conceição	-5082
▁resistência	-5083
ídeo	-5084
▁Def	-5085
▁Wor	-5086
heiros	-5087
▁sepul	-5088
▁presentes	-5089
we	-5090
▁9,	-5091
▁conclu	-5092
▁manter	-5093
tamentos	-5094
▁considera	-5095
eirão	-5096
ipo	-5097
cher	-5098
▁psic	-5099
▁divul	-5100
▁estudou	-5101
▁campeonato	-5102
fede	-5103
fiel	-5104
▁Hos	-5105
▁terres	-5106
▁Sistema	-5107
67	-5108
gin	-5109
its	-5110
reo	-5111
onais	-5112
▁vive	-5113
▁noite	-5114
▁secund	-5115
▁receber	-5116
ficamente	-5117
▁Federação	-5118
▁políticos	-5119
▁Cro	-5120
▁2002,	-5121
▁queda	-5122
▁proxim	-5123
▁problema	-5124
▁Cel	-5125
vadas	-5126
▁aqui	-5127
▁aumenta	-5128
▁US	-5129
bela	-5130
▁bispo	-5131
▁setor	-5132
▁resulta	-5133
▁processa	-5134
Rio	-5135
▁1990,	-5136
▁depen	-5137
▁Almeida	-5138
▁estádio	-5139
▁instrumento	-5140
▁bac	-5141
▁tril	-5142
▁barra	-5143
▁nucle	-5144
▁susten	-5145
▁respectivamente	-5146
Con	-5147
▁dete	-5148
▁topo	-5149
▁económ	-5150
▁prêmio	-5151
▁residência	-5152
▁cursos	-5153
▁serviu	-5154
▁realizar	-5155
▁necessidade	-5156
ule	-5157
▁artigo	-5158
gina	-5159
iocese	-5160
▁2008,	-5161
▁cente	-5162
▁divisa	-5163
▁regime	-5164
▁seleção	-5165
▁determin	-5166
▁produzido	-5167
▁desenvolveu	-5168
uc	-5169
▁Ó	-5170
ggio	-5171
▁espi	-5172
também	-5173
▁morre	-5174
▁Za	-5175
▁carne	-5176
▁espor	-5177
▁direta	-5178
▁populares	-5179
▁tradicionais	-5180
▁Desta	-5181
▁chega	-5182
▁votos	-5183
▁reserva	-5184
▁deputado	-5185
▁permaneceu	-5186
trias	-5187
êmios	-5188
▁grav	-5189
▁2011,	-5190
▁ciência	-5191
▁alimenta	-5192
hola	-5193
dicos	-5194
▁sabe	-5195
▁alemã	-5196
▁branca	-5197
▁Descrição	-5198
▁lingu	-5199
▁padro	-5200
▁Revolução	-5201
▁econômica	-5202
▁fib	-5203
▁molé	-5204
▁Clima	-5205
▁preserva	-5206
ólogo	-5207
▁nacionais	-5208
5)	-5209
▁Cab	-5210
▁FIFA	-5211
▁anteriormente	-5212
91	-5213
TV	-5214
gnano	-5215
▁hino	-5216
▁lemb	-5217
TE	-5218
▁cató	-5219
▁elim	-5220
▁visão	-5221
pidamente	-5222
rador	-5223
▁cabo	-5224
▁monar	-5225
▁Castilla	-5226
87	-5227
▁Vis	-5228
▁torre	-5229
▁Estádio	-5230
▁Marinha	-5231
_1	-5232
▁manu	-5233
unicações	-5234
▁instalação	-5235
▁cí	-5236
▁elé	-5237
▁flo	-5238
▁Egito	-5239
▁assumiu	-5240
▁estende	-5241
▁Bragança	-5242
TA	-5243
at	-5244
ivas	-5245
çamb	-5246
▁Van	-5247
▁rib	-5248
▁Barcel	-5249
▁reinado	-5250
▁Ul	-5251
▁Palm	-5252
▁Sard	-5253
▁guer	-5254
▁Secre	-5255
▁atrás	-5256
▁ciclo	-5257
▁milho	-5258
▁brasileiros	-5259
▁considerados	-5260
9)	-5261
ró	-5262
tela	-5263
▁Fis	-5264
▁Hon	-5265
▁semi	-5266
▁compa	-5267
▁sexta	-5268
▁usadas	-5269
dge	-5270
dito	-5271
mano	-5272
sada	-5273
unos	-5274
vora	-5275
▁Casal	-5276
quistou	-5277
▁Aven	-5278
▁Média	-5279
▁ministro	-5280
▁í	-5281
ficou	-5282
▁terá	-5283
▁Pertence	-5284
▁Vê	-5285
lagem	-5286
itário	-5287
▁alfabe	-5288
tê	-5289
▁y	-5290
dil	-5291
tente	-5292
▁Mara	-5293
▁Lagoa	-5294
▁cantor	-5295
▁memória	-5296
▁inaugurado	-5297
51	-5298
Co	-5299
éu	-5300
lub	-5301
quês	-5302
ésia	-5303
▁jul	-5304
▁gado	-5305
▁mãos	-5306
▁Piauí	-5307
▁Telec	-5308
▁leite	-5309
▁estraté	-5310
mé	-5311
▁Ze	-5312
▁Dias	-5313
▁enor	-5314
vações	-5315
▁expansão	-5316
▁pan	-5317
ridas	-5318
▁árabe	-5319
▁fundou	-5320
▁Sicília	-5321
king	-5322
▁acer	-5323
▁amea	-5324
terrân	-5325
▁proto	-5326
▁tropas	-5327
▁definição	-5328
▁desenvolvido	-5329
▁BR	-5330
▁Ni	-5331
▁bon	-5332
dense	-5333
▁Record	-5334
▁possuía	-5335
▁destacam	-5336
cip	-5337
vais	-5338
▁Mich	-5339
▁fundo	-5340
▁Oceano	-5341
▁perdeu	-5342
▁contempor	-5343
▁sequência	-5344
▁vegetação	-5345
ight	-5346
▁arro	-5347
étrico	-5348
ônicos	-5349
▁Exército	-5350
▁elétrica	-5351
▁pecuária	-5352
▁rapidamente	-5353
xos	-5354
▁gás	-5355
lados	-5356
▁orienta	-5357
▁diferença	-5358
▁hem	-5359
▁Bene	-5360
▁dita	-5361
▁pros	-5362
▁dedic	-5363
dol	-5364
▁150	-5365
festa	-5366
gráfico	-5367
▁gravado	-5368
ann	-5369
rense	-5370
▁Ante	-5371
▁tema	-5372
▁geração	-5373
▁começaram	-5374
▁matemática	-5375
94	-5376
jão	-5377
aste	-5378
cons	-5379
▁hid	-5380
▁pele	-5381
▁2001,	-5382
ramente	-5383
▁dessas	-5384
▁eleição	-5385
▁instalado	-5386
▁demográfica	-5387
arte	-5388
▁seres	-5389
▁Nações	-5390
▁Vêneto	-5391
▁contribu	-5392
▁evolução	-5393
sh	-5394
▁Cri	-5395
▁amigo	-5396
▁convida	-5397
▁Gas	-5398
▁futuro	-5399
▁chamadas	-5400
▁prefeitura	-5401
▁Lín	-5402
tível	-5403
▁honra	-5404
▁formal	-5405
▁Rom	-5406
▁juda	-5407
▁Douro	-5408
▁Estas	-5409
▁Windo	-5410
▁anuncia	-5411
▁decidiu	-5412
▁ficando	-5413
▁solução	-5414
sur	-5415
▁Tec	-5416
▁hum	-5417
▁desses	-5418
▁mascul	-5419
▁órgãos	-5420
▁inverno	-5421
▁romanos	-5422
ricamente	-5423
▁instrumentos	-5424
64	-5425
erson	-5426
▁Sala	-5427
tações	-5428
▁Liber	-5429
▁artís	-5430
▁paral	-5431
▁feitos	-5432
▁jogadores	-5433
▁desmembrado	-5434
TP	-5435
▁(0	-5436
▁Alta	-5437
▁carga	-5438
▁conec	-5439
▁Ocidental	-5440
fra	-5441
▁64	-5442
ósse	-5443
▁apon	-5444
▁vivo	-5445
▁ferra	-5446
▁restri	-5447
▁alemães	-5448
▁fenômen	-5449
▁Enquanto	-5450
▁publicação	-5451
▁Sp	-5452
▁11,	-5453
▁Chi	-5454
ritmo	-5455
▁Verm	-5456
▁gale	-5457
▁obter	-5458
▁canções	-5459
▁imigrantes	-5460
diam	-5461
▁EUA	-5462
▁Pom	-5463
▁ram	-5464
▁aval	-5465
▁remon	-5466
▁aerona	-5467
▁Turismo	-5468
▁circula	-5469
▁entretanto	-5470
▁movimentos	-5471
▁sá	-5472
dela	-5473
▁Mul	-5474
▁paci	-5475
▁Saúde	-5476
54	-5477
▁segue	-5478
▁vocal	-5479
▁Política	-5480
pto	-5481
burg	-5482
▁cre	-5483
▁Tele	-5484
▁saté	-5485
▁2018,	-5486
▁arran	-5487
▁risco	-5488
▁feitas	-5489
▁indivi	-5490
▁conteúdo	-5491
▁Aço	-5492
▁ramo	-5493
▁tone	-5494
▁disse	-5495
▁Ministro	-5496
▁Superior	-5497
▁exploração	-5498
uso	-5499
▁fins	-5500
▁2021,	-5501
▁nessa	-5502
▁litoral	-5503
diana	-5504
▁produzir	-5505
▁compostos	-5506
▁manifesta	-5507
cana	-5508
▁Evang	-5509
▁nenhuma	-5510
▁Alexandre	-5511
çul	-5512
glio	-5513
▁Fri	-5514
landes	-5515
istente	-5516
▁finais	-5517
SD	-5518
ctos	-5519
▁Ali	-5520
▁Ten	-5521
▁Dina	-5522
iverso	-5523
▁semana	-5524
▁gêneros	-5525
▁estabelec	-5526
▁42	-5527
ella	-5528
▁1970	-5529
▁ambas	-5530
▁cuida	-5531
nambuco	-5532
▁Dr	-5533
▁Agu	-5534
▁textos	-5535
▁Campania	-5536
NU	-5537
▁33	-5538
▁Aba	-5539
grada	-5540
▁2008	-5541
▁bril	-5542
▁plata	-5543
▁ponte	-5544
▁recom	-5545
▁dirigido	-5546
▁rua	-5547
▁Isto	-5548
▁Grosso	-5549
▁reação	-5550
▁Sardenha	-5551
yer	-5552
gola	-5553
ísmo	-5554
▁1980	-5555
▁Gomes	-5556
▁esfor	-5557
▁chamar	-5558
▁limite	-5559
▁Constan	-5560
▁Fevereiro	-5561
▁corresponde	-5562
93	-5563
Se	-5564
▁comu	-5565
▁sens	-5566
▁site	-5567
▁integ	-5568
▁evitar	-5569
▁encontrada	-5570
▁localização	-5571
udo	-5572
çado	-5573
íaco	-5574
ónia	-5575
▁Dar	-5576
▁bras	-5577
▁Texas	-5578
▁treina	-5579
ferências	-5580
▁coordena	-5581
▁diferencia	-5582
▁documentos	-5583
▁Via	-5584
▁pun	-5585
▁André	-5586
▁nobre	-5587
▁atraves	-5588
/0	-5589
zz	-5590
nsa	-5591
umin	-5592
▁atle	-5593
▁posto	-5594
▁confun	-5595
▁comanda	-5596
▁realiza	-5597
▁reconhe	-5598
▁Todos	-5599
▁dizer	-5600
▁redes	-5601
cimentos	-5602
13,	-5603
pus	-5604
xon	-5605
zas	-5606
orde	-5607
ximo	-5608
▁ato	-5609
▁paz	-5610
▁Pela	-5611
▁toma	-5612
ribunal	-5613
▁religiosa	-5614
ye	-5615
▁Teo	-5616
▁cum	-5617
▁Alves	-5618
▁manteve	-5619
▁protagon	-5620
▁quadrados	-5621
▁apresentar	-5622
▁conquistou	-5623
▁finalmente	-5624
ína	-5625
▁go	-5626
▁fix	-5627
todos	-5628
▁Come	-5629
▁seca	-5630
▁conduz	-5631
▁apresentou	-5632
duais	-5633
▁venceu	-5634
▁abertura	-5635
▁científica	-5636
▁comportamento	-5637
5%	-5638
▁Pl	-5639
▁afas	-5640
▁nega	-5641
▁assun	-5642
the	-5643
▁10.	-5644
▁Bos	-5645
▁1990	-5646
dentes	-5647
▁atingir	-5648
▁operação	-5649
▁nascimento	-5650
▁Constituição	-5651
Ch	-5652
▁Ko	-5653
▁sil	-5654
cífico	-5655
▁imple	-5656
ivel	-5657
tins	-5658
▁Mun	-5659
emité	-5660
enses	-5661
meras	-5662
▁2017	-5663
▁colabo	-5664
▁contato	-5665
▁instituições	-5666
feros	-5667
▁Club	-5668
▁Vitória	-5669
▁mencion	-5670
▁medieval	-5671
onel	-5672
▁coz	-5673
trais	-5674
▁2011	-5675
▁Três	-5676
▁dirig	-5677
▁navios	-5678
▁recons	-5679
▁Richard	-5680
▁históricos	-5681
ind	-5682
urí	-5683
uto	-5684
▁8.	-5685
onha	-5686
▁Toc	-5687
▁2007	-5688
▁Windows	-5689
▁fazenda	-5690
▁operações	-5691
▁anteriores	-5692
▁comerciais	-5693
onia	-5694
tões	-5695
▁300	-5696
▁Guil	-5697
▁Frank	-5698
▁Galiza	-5699
▁conste	-5700
▁praticamente	-5701
OS	-5702
lé	-5703
way	-5704
çada	-5705
▁Hor	-5706
ógica	-5707
▁magn	-5708
▁Class	-5709
▁telef	-5710
▁Suécia	-5711
83	-5712
▁Bri	-5713
rizado	-5714
▁vinte	-5715
▁Paraíba	-5716
▁realizou	-5717
▁aplicação	-5718
▁pesquisas	-5719
▁potencial	-5720
▁aplicações	-5721
De	-5722
▁Aos	-5723
▁Kar	-5724
tinos	-5725
▁atuou	-5726
▁residências	-5727
84	-5728
mato	-5729
▁Len	-5730
▁nada	-5731
▁negó	-5732
ficando	-5733
▁Medicina	-5734
▁infantil	-5735
bert	-5736
medi	-5737
encial	-5738
âmetro	-5739
undidade	-5740
▁Família	-5741
MA	-5742
▁parece	-5743
▁urbano	-5744
▁Ya	-5745
ires	-5746
▁bre	-5747
▁Filipe	-5748
▁artista	-5749
▁determinado	-5750
án	-5751
form	-5752
riti	-5753
▁Fol	-5754
▁repu	-5755
▁1980,	-5756
▁enfren	-5757
▁intitu	-5758
▁desenho	-5759
▁transmissão	-5760
▁"-	-5761
▁47	-5762
bine	-5763
▁suf	-5764
▁deslo	-5765
▁porta	-5766
▁Estrada	-5767
▁agrícola	-5768
▁toneladas	-5769
gress	-5770
▁2002	-5771
▁Civil	-5772
▁absor	-5773
▁bandas	-5774
▁sofreu	-5775
▁Santana	-5776
▁musicais	-5777
▁temperaturas	-5778
eos	-5779
▁Cle	-5780
▁Tar	-5781
▁veri	-5782
inária	-5783
▁jorna	-5784
▁associado	-5785
.)	-5786
voa	-5787
gênio	-5788
▁XIII	-5789
▁moeda	-5790
▁quente	-5791
▁Telecom	-5792
▁culturais	-5793
▁Som	-5794
▁advo	-5795
▁exig	-5796
ualmente	-5797
▁aparente	-5798
▁alimentos	-5799
▁existentes	-5800
▁St	-5801
▁Pena	-5802
▁2012,	-5803
▁Série	-5804
▁exterior	-5805
cy	-5806
▁Us	-5807
▁War	-5808
itivos	-5809
▁Aérea	-5810
▁mecan	-5811
▁trono	-5812
▁bairros	-5813
,"	-5814
89	-5815
▁And	-5816
pélago	-5817
▁níveis	-5818
▁explica	-5819
▁documento	-5820
▁colonização	-5821
rum	-5822
▁Ur	-5823
▁fê	-5824
▁leis	-5825
▁micr	-5826
▁aprov	-5827
▁recente	-5828
SS	-5829
▁Cra	-5830
hados	-5831
▁vivem	-5832
▁Eduardo	-5833
▁matéria	-5834
▁Fundação	-5835
▁desapare	-5836
▁programação	-5837
▁reconhecimento	-5838
▁À	-5839
bach	-5840
grafo	-5841
▁café	-5842
▁saída	-5843
▁destas	-5844
▁chegaram	-5845
elos	-5846
unas	-5847
landês	-5848
▁Maior	-5849
ríncipe	-5850
▁Isabel	-5851
fas	-5852
sal	-5853
▁Aqu	-5854
▁gos	-5855
▁mamí	-5856
▁embar	-5857
▁espal	-5858
▁United	-5859
▁obriga	-5860
▁sexual	-5861
▁participa	-5862
IB	-5863
lec	-5864
▁Jus	-5865
▁org	-5866
▁Peru	-5867
▁Super	-5868
▁delas	-5869
▁ideal	-5870
▁prima	-5871
▁anunciou	-5872
▁definida	-5873
▁Mace	-5874
postos	-5875
▁absol	-5876
▁Contudo	-5877
▁estudar	-5878
esas	-5879
▁apre	-5880
▁capaz	-5881
▁Sha	-5882
▁daí	-5883
▁viaj	-5884
▁união	-5885
▁Muitos	-5886
pse	-5887
émio	-5888
▁troca	-5889
▁Países	-5890
▁deuses	-5891
ialmente	-5892
▁Antonio	-5893
65	-5894
IC	-5895
cidas	-5896
▁líqu	-5897
▁2014,	-5898
▁museu	-5899
▁quadrinhos	-5900
ics	-5901
oli	-5902
▁(;	-5903
gura	-5904
çando	-5905
▁acum	-5906
▁Vista	-5907
▁porte	-5908
teriores	-5909
▁combate	-5910
gs	-5911
▁fé	-5912
nima	-5913
▁12,	-5914
▁paul	-5915
queira	-5916
▁resto	-5917
▁simbol	-5918
▁Religião	-5919
▁exemplos	-5920
▁continente	-5921
ói	-5922
ure	-5923
amba	-5924
citos	-5925
▁1960	-5926
▁card	-5927
▁perf	-5928
torial	-5929
▁2015,	-5930
ísticos	-5931
▁camada	-5932
▁cristã	-5933
▁domingo	-5934
▁construir	-5935
▁territórios	-5936
▁recentemente	-5937
cipl	-5938
rota	-5939
▁Fal	-5940
▁bor	-5941
▁mun	-5942
▁Pará	-5943
▁evid	-5944
▁1960,	-5945
▁Linha	-5946
▁Ribeiro	-5947
▁digital	-5948
▁mudanças	-5949
▁próprios	-5950
▁Soviética	-5951
00,	-5952
▁Urb	-5953
▁1970,	-5954
emitério	-5955
ashington	-5956
▁Comissão	-5957
▁parceria	-5958
▁Olímpicos	-5959
▁utilizadas	-5960
▁Pó	-5961
▁181	-5962
▁graças	-5963
▁Martins	-5964
▁Oriente	-5965
▁personal	-5966
▁engenheiro	-5967
hã	-5968
enza	-5969
ízes	-5970
zinho	-5971
▁ruas	-5972
▁muçul	-5973
▁narra	-5974
▁Senhor	-5975
▁Europeia	-5976
▁iniciais	-5977
▁Sociedade	-5978
perado	-5979
▁daquele	-5980
▁experiência	-5981
Le	-5982
oni	-5983
▁Tho	-5984
▁XII	-5985
▁din	-5986
▁precip	-5987
tividades	-5988
▁Hospital	-5989
hei	-5990
▁Fé	-5991
▁2016	-5992
▁apel	-5993
▁Morte	-5994
▁temas	-5995
▁alunos	-5996
▁Augusto	-5997
▁inglesa	-5998
▁alterado	-5999
▁europeus	-6000
hn	-6001
óf	-6002
▁2009	-6003
▁habil	-6004
▁renda	-6005
çambique	-6006
▁integrado	-6007
▁equivalente	-6008
▁profissionais	-6009
74	-6010
teu	-6011
▁eu	-6012
Nova	-6013
▁Rob	-6014
▁Mano	-6015
▁Duque	-6016
ridades	-6017
▁Quinta	-6018
▁descendentes	-6019
illa	-6020
▁prí	-6021
▁deco	-6022
▁medicina	-6023
wer	-6024
imas	-6025
jeto	-6026
▁alc	-6027
▁tér	-6028
unici	-6029
▁irmã	-6030
▁mantém	-6031
úr	-6032
iga	-6033
▁Rog	-6034
gando	-6035
▁1995,	-6036
▁reais	-6037
▁verea	-6038
▁consul	-6039
▁visual	-6040
▁captura	-6041
▁Dinamarca	-6042
▁realidade	-6043
▁predominante	-6044
82	-6045
dim	-6046
óso	-6047
tração	-6048
▁escul	-6049
▁sedia	-6050
▁ataque	-6051
americana	-6052
▁tornaram	-6053
▁Cur	-6054
▁pés	-6055
▁Reis	-6056
▁argu	-6057
▁levan	-6058
▁extremo	-6059
unicipais	-6060
▁voz	-6061
▁1998	-6062
tência	-6063
▁Esporte	-6064
▁químico	-6065
▁seguido	-6066
▁dimensões	-6067
▁relaciona	-6068
▁utilizando	-6069
doso	-6070
crito	-6071
▁Alfre	-6072
▁Guarda	-6073
▁Espírito	-6074
▁extremamente	-6075
▁Barb	-6076
▁fogo	-6077
▁perda	-6078
ivelmente	-6079
▁Cin	-6080
ítico	-6081
▁celeb	-6082
▁certo	-6083
▁Cens	-6084
▁susp	-6085
▁sóli	-6086
taleza	-6087
▁Baixo	-6088
▁divide	-6089
▁Popular	-6090
▁acontece	-6091
▁designado	-6092
▁semelhantes	-6093
81	-6094
st	-6095
hael	-6096
line	-6097
mona	-6098
ones	-6099
reau	-6100
▁1998,	-6101
▁ações	-6102
▁olhos	-6103
▁estreia	-6104
▁Áustria	-6105
▁componentes	-6106
SO	-6107
▁51	-6108
▁1999	-6109
▁Capi	-6110
▁recep	-6111
▁vestí	-6112
▁índios	-6113
▁Pernambuco	-6114
▁Ric	-6115
▁Maca	-6116
▁Mess	-6117
▁2005.	-6118
▁Organização	-6119
lis	-6120
tana	-6121
▁Foram	-6122
▁drama	-6123
▁Giovan	-6124
▁máxima	-6125
▁complexo	-6126
▁universal	-6127
▁indivíduos	-6128
▁particularmente	-6129
úria	-6130
▁Don	-6131
▁papa	-6132
▁1999,	-6133
▁dinheiro	-6134
▁Província	-6135
ls	-6136
▁Vo	-6137
▁onda	-6138
▁bilhões	-6139
▁estabeleceu	-6140
ous	-6141
▁CO	-6142
▁Far	-6143
▁Ham	-6144
▁Teve	-6145
ficações	-6146
▁pratica	-6147
▁proteção	-6148
▁Fla	-6149
ridos	-6150
▁Outro	-6151
▁Berlim	-6152
▁arquivos	-6153
▁oposição	-6154
▁comumente	-6155
▁Ken	-6156
▁lenda	-6157
dimentos	-6158
▁consumo	-6159
▁referir	-6160
▁externas	-6161
▁proposta	-6162
▁Moçambique	-6163
▁Património	-6164
ub	-6165
▁49	-6166
plan	-6167
ídio	-6168
▁ave	-6169
▁emi	-6170
▁Miss	-6171
▁Açores	-6172
▁coração	-6173
▁questão	-6174
▁chegando	-6175
▁sementes	-6176
▁cho	-6177
landa	-6178
▁acaba	-6179
▁fusão	-6180
▁proib	-6181
▁velho	-6182
▁modelos	-6183
62	-6184
IBGE	-6185
ervar	-6186
▁capi	-6187
▁amigos	-6188
▁ligado	-6189
▁motivo	-6190
▁templo	-6191
▁estúdio	-6192
federação	-6193
▁designar	-6194
▁Congresso	-6195
íss	-6196
cina	-6197
rizonte	-6198
▁célula	-6199
▁diante	-6200
▁atenção	-6201
▁planeta	-6202
ficiência	-6203
mão	-6204
õem	-6205
▁acus	-6206
▁Massa	-6207
▁Peter	-6208
▁Poder	-6209
▁indic	-6210
▁monte	-6211
▁aparel	-6212
▁frutos	-6213
▁técnico	-6214
▁aspectos	-6215
fim	-6216
▁Banco	-6217
▁Cinema	-6218
▁ligada	-6219
▁abandon	-6220
▁autoria	-6221
▁ocasião	-6222
▁Domingos	-6223
▁professo	-6224
▁Qui	-6225
▁apar	-6226
▁raio	-6227
▁1994,	-6228
▁Artes	-6229
entecos	-6230
▁distingu	-6231
▁oriental	-6232
▁representam	-6233
tã	-6234
ecu	-6235
nias	-6236
rano	-6237
▁Bla	-6238
quial	-6239
▁Acre	-6240
▁Torn	-6241
▁Príncipe	-6242
▁partículas	-6243
my	-6244
dina	-6245
▁voc	-6246
▁Marco	-6247
▁fruto	-6248
▁meios	-6249
▁contín	-6250
▁judeus	-6251
▁cresceu	-6252
▁possibil	-6253
▁competições	-6254
▁completamente	-6255
arre	-6256
▁Alb	-6257
▁Din	-6258
▁Guin	-6259
▁acei	-6260
▁1997,	-6261
▁nascente	-6262
▁florestas	-6263
tô	-6264
▁fá	-6265
rupa	-6266
▁Bell	-6267
▁marí	-6268
▁Capela	-6269
▁marido	-6270
▁ocorrem	-6271
▁torneio	-6272
▁indústrias	-6273
vess	-6274
▁Nic	-6275
▁Tos	-6276
chado	-6277
▁cine	-6278
▁Física	-6279
▁enorme	-6280
▁diâmetro	-6281
▁tentativa	-6282
▁realização	-6283
▁65	-6284
▁Atl	-6285
▁Fan	-6286
tuário	-6287
ultura	-6288
▁Sendo	-6289
▁pintura	-6290
▁constitui	-6291
▁históricas	-6292
▁39	-6293
itou	-6294
urus	-6295
éria	-6296
▁400	-6297
▁Jac	-6298
▁Lar	-6299
▁Ocu	-6300
▁Paz	-6301
▁eta	-6302
▁fér	-6303
rante	-6304
▁roda	-6305
▁aberto	-6306
▁casado	-6307
▁Pacífico	-6308
63	-6309
dó	-6310
usta	-6311
▁cóp	-6312
ritos	-6313
▁Interna	-6314
▁calendário	-6315
▁Lob	-6316
▁Ren	-6317
▁seg	-6318
dical	-6319
rença	-6320
▁Públ	-6321
▁tens	-6322
▁1992,	-6323
▁expul	-6324
▁media	-6325
▁Princi	-6326
▁órbita	-6327
▁escrever	-6328
▁Gonçalves	-6329
BC	-6330
quad	-6331
▁filóso	-6332
▁edições	-6333
▁concentração	-6334
hal	-6335
▁Dé	-6336
▁vão	-6337
▁Espa	-6338
▁Outra	-6339
▁duração	-6340
▁consequência	-6341
tás	-6342
fícil	-6343
ressou	-6344
▁Pedra	-6345
▁radio	-6346
tronomia	-6347
▁amplamente	-6348
dire	-6349
nome	-6350
▁Gen	-6351
▁Manoel	-6352
▁rodovia	-6353
▁associação	-6354
72	-6355
73	-6356
íam	-6357
sola	-6358
▁Ran	-6359
▁Stu	-6360
▁relevo	-6361
▁faleceu	-6362
▁numeros	-6363
▁terreno	-6364
▁Martinho	-6365
▁especiais	-6366
fel	-6367
gico	-6368
▁Sér	-6369
▁vil	-6370
ômica	-6371
▁Segu	-6372
estões	-6373
▁Souza	-6374
▁vindo	-6375
▁viver	-6376
▁Palácio	-6377
▁Tratado	-6378
▁editora	-6379
▁Oriental	-6380
▁Português	-6381
▁americana	-6382
▁mamíferos	-6383
▁52	-6384
mens	-6385
▁Grã	-6386
▁Lam	-6387
▁fas	-6388
cebis	-6389
▁aconteceu	-6390
lex	-6391
ult	-6392
trado	-6393
úsica	-6394
▁Arte	-6395
▁ocup	-6396
▁ovos	-6397
▁1991,	-6398
▁trata	-6399
▁decisão	-6400
▁destino	-6401
província	-6402
▁povoamento	-6403
chu	-6404
wal	-6405
▁far	-6406
▁Bair	-6407
▁agro	-6408
▁Chile	-6409
▁sinto	-6410
▁Letras	-6411
▁difícil	-6412
▁edifícios	-6413
RA	-6414
igh	-6415
▁14,	-6416
▁foz	-6417
truiu	-6418
▁bens	-6419
▁notí	-6420
portivo	-6421
▁desenvolver	-6422
élio	-6423
marães	-6424
▁cerim	-6425
▁facilmente	-6426
êu	-6427
sar	-6428
▁suj	-6429
trons	-6430
▁World	-6431
▁cruza	-6432
▁dupla	-6433
▁Partic	-6434
▁espiri	-6435
▁cultivo	-6436
▁ferrovi	-6437
▁igualmente	-6438
▁comunidades	-6439
▁encontradas	-6440
▁reconhecido	-6441
▁nomeadamente	-6442
▁We	-6443
▁Louis	-6444
▁mural	-6445
▁emisso	-6446
▁Roberto	-6447
presidente	-6448
▁classificado	-6449
▁computadores	-6450
portun	-6451
▁Catal	-6452
▁diminu	-6453
▁músico	-6454
mino	-6455
▁ras	-6456
cante	-6457
renço	-6458
▁Esses	-6459
▁novela	-6460
▁aldeias	-6461
yl	-6462
Com	-6463
▁NA	-6464
ingu	-6465
▁avan	-6466
▁Século	-6467
▁proven	-6468
onização	-6469
▁Giovanni	-6470
ken	-6471
▁34	-6472
lome	-6473
óvel	-6474
▁Ata	-6475
▁Tan	-6476
▁Jack	-6477
▁sexo	-6478
deiros	-6479
rolina	-6480
▁Força	-6481
▁Lopes	-6482
▁altas	-6483
▁impre	-6484
▁russo	-6485
▁vinho	-6486
volucion	-6487
-0	-6488
iões	-6489
▁Jan	-6490
▁Aten	-6491
▁nego	-6492
▁navio	-6493
▁brasão	-6494
▁fortes	-6495
▁rainha	-6496
▁métodos	-6497
▁engenharia	-6498
▁Infraestrutura	-6499
▁Sá	-6500
▁céu	-6501
hares	-6502
▁objec	-6503
▁sítio	-6504
▁Teatro	-6505
▁altera	-6506
▁sinais	-6507
▁eleitos	-6508
▁utilizar	-6509
▁Washington	-6510
▁53	-6511
rana	-6512
▁atua	-6513
▁excel	-6514
▁solar	-6515
▁ideias	-6516
▁neg	-6517
guaçu	-6518
▁Cria	-6519
▁irre	-6520
▁Tinha	-6521
▁festas	-6522
▁Michael	-6523
▁origens	-6524
▁registro	-6525
▁categorias	-6526
berto	-6527
▁Sara	-6528
▁dança	-6529
▁largura	-6530
▁culturas	-6531
▁públicos	-6532
▁reconstru	-6533
▁universidade	-6534
vá	-6535
anex	-6536
▁States	-6537
▁floresta	-6538
▁recentes	-6539
▁econômico	-6540
▁55	-6541
▁cá	-6542
▁ino	-6543
ianos	-6544
rioca	-6545
▁Terc	-6546
▁Zona	-6547
▁empa	-6548
▁gestão	-6549
▁rochas	-6550
▁existente	-6551
DE	-6552
vic	-6553
win	-6554
field	-6555
▁1930	-6556
▁curta	-6557
▁podemos	-6558
▁Nordeste	-6559
▁exposição	-6560
▁religioso	-6561
▁representado	-6562
▁Metropolitana	-6563
dist	-6564
▁elabo	-6565
▁fluxo	-6566
▁terem	-6567
mentado	-6568
▁Irlanda	-6569
▁Primeiro	-6570
▁escritos	-6571
pt	-6572
unes	-6573
▁Cir	-6574
ícios	-6575
▁acres	-6576
▁terça	-6577
▁Lourenço	-6578
▁organismo	-6579
▁transferi	-6580
▁municipais	-6581
ME	-6582
mba	-6583
▁Vie	-6584
▁dub	-6585
ônicas	-6586
▁juven	-6587
▁levar	-6588
▁Thomas	-6589
▁design	-6590
▁posterior	-6591
gol	-6592
▁aí	-6593
chen	-6594
▁agu	-6595
cação	-6596
▁dela	-6597
▁Emília	-6598
▁acadêm	-6599
▁guarda	-6600
▁planíci	-6601
ábria	-6602
▁1920	-6603
▁1997	-6604
▁Logo	-6605
▁gols	-6606
ilares	-6607
▁Corpo	-6608
▁Bureau	-6609
▁cultiva	-6610
boratório	-6611
▁execução	-6612
▁liberdade	-6613
▁substâncias	-6614
hadas	-6615
▁Grego	-6616
▁Nessa	-6617
▁Melhor	-6618
▁máximo	-6619
▁Alberto	-6620
61	-6621
eas	-6622
ings	-6623
mbia	-6624
últi	-6625
▁13,	-6626
▁Sho	-6627
éticos	-6628
▁bisse	-6629
▁diale	-6630
▁rique	-6631
▁capítu	-6632
▁Legisla	-6633
▁capitão	-6634
▁regular	-6635
▁tropical	-6636
▁descoberto	-6637
▁religiosas	-6638
▁pertencentes	-6639
ré	-6640
▁1950	-6641
izeram	-6642
rosoft	-6643
▁Rocca	-6644
▁projec	-6645
▁artigos	-6646
▁fatores	-6647
▁contrato	-6648
▁vestígios	-6649
let	-6650
▁aé	-6651
▁Sab	-6652
▁Stan	-6653
▁2025,	-6654
▁casal	-6655
▁começo	-6656
▁dissol	-6657
▁constituição	-6658
▁possibilidade	-6659
In	-6660
ESP	-6661
▁Naz	-6662
▁deixa	-6663
▁oceano	-6664
▁centros	-6665
▁consequ	-6666
▁criando	-6667
▁exporta	-6668
▁Internet	-6669
▁revistas	-6670
▁arquipélago	-6671
▁apresentação	-6672
hat	-6673
tano	-6674
nador	-6675
▁1995	-6676
▁Morreu	-6677
▁planeja	-6678
▁determinada	-6679
tese	-6680
▁179	-6681
icion	-6682
itiva	-6683
▁Dois	-6684
▁coro	-6685
▁ergu	-6686
▁Encon	-6687
família	-6688
▁Língua	-6689
▁caráter	-6690
▁decorre	-6691
▁substituído	-6692
▁Inicialmente	-6693
Ge	-6694
ose	-6695
▁ros	-6696
▁anda	-6697
▁Arqui	-6698
▁galáx	-6699
▁subord	-6700
▁suporte	-6701
8)	-6702
IN	-6703
▁1996	-6704
▁ensa	-6705
tróleo	-6706
▁1996,	-6707
▁nasce	-6708
▁orden	-6709
▁pintor	-6710
▁Calábria	-6711
▁dinastia	-6712
▁produzida	-6713
▁Ep	-6714
▁Mur	-6715
ntese	-6716
▁decl	-6717
endida	-6718
▁atmos	-6719
▁desanex	-6720
▁agrícolas	-6721
▁120	-6722
▁2013	-6723
▁Aqui	-6724
▁impul	-6725
▁dólares	-6726
onde	-6727
▁XIV	-6728
cerdo	-6729
▁Belo	-6730
/2013,	-6731
▁deusa	-6732
▁Muitas	-6733
▁moedas	-6734
▁poesia	-6735
▁prisão	-6736
▁aqueles	-6737
▁moderno	-6738
▁consider	-6739
pós	-6740
xic	-6741
nças	-6742
▁Les	-6743
teira	-6744
▁2020	-6745
▁Cari	-6746
▁acess	-6747
▁Península	-6748
tár	-6749
trina	-6750
▁Nico	-6751
ecendo	-6752
▁Trata	-6753
▁domina	-6754
▁Angeles	-6755
▁aspecto	-6756
▁entidade	-6757
▁indivíduo	-6758
71	-6759
êx	-6760
ür	-6761
▁Ke	-6762
erre	-6763
issa	-6764
tego	-6765
ínia	-6766
rinos	-6767
toria	-6768
▁Cass	-6769
▁City	-6770
▁oxig	-6771
▁Guada	-6772
▁Aldeia	-6773
▁combus	-6774
▁discos	-6775
▁eletro	-6776
▁álbuns	-6777
▁abandona	-6778
Ta	-6779
ômico	-6780
▁Huma	-6781
▁Pira	-6782
▁inim	-6783
▁Aires	-6784
▁Tocan	-6785
▁modal	-6786
▁serve	-6787
▁atuação	-6788
▁cantora	-6789
▁Guimarães	-6790
▁compartil	-6791
ministrativa	-6792
▁har	-6793
▁Praça	-6794
▁Marcos	-6795
▁classi	-6796
▁transfe	-6797
▁escolhido	-6798
AR	-6799
yd	-6800
tum	-6801
▁UN	-6802
quete	-6803
randa	-6804
itando	-6805
▁carro	-6806
▁motor	-6807
▁agraciado	-6808
▁desconheci	-6809
69	-6810
thur	-6811
tipo	-6812
▁Nota	-6813
▁Álva	-6814
▁Leste	-6815
▁Oscar	-6816
▁adequ	-6817
▁englo	-6818
▁venda	-6819
▁fizeram	-6820
▁referido	-6821
▁substância	-6822
03	-6823
qü	-6824
élgica	-6825
▁conex	-6826
▁saber	-6827
▁Angola	-6828
▁pedras	-6829
▁Independ	-6830
▁contendo	-6831
▁cristãos	-6832
▁franceses	-6833
▁equipamentos	-6834
Na	-6835
mall	-6836
▁arco	-6837
▁doce	-6838
▁usam	-6839
▁2004.	-6840
▁Médio	-6841
▁equil	-6842
▁abunda	-6843
▁levando	-6844
▁Alexandria	-6845
▁historiador	-6846
vér	-6847
well	-6848
▁1993	-6849
▁Velho	-6850
▁estil	-6851
▁piloto	-6852
▁cristal	-6853
▁acidente	-6854
▁identidade	-6855
fi	-6856
real	-6857
▁Pic	-6858
▁1989	-6859
▁quin	-6860
▁Guara	-6861
▁recém	-6862
▁Geográ	-6863
▁criança	-6864
▁japonês	-6865
▁máquina	-6866
▁tradução	-6867
▁desenvolve	-6868
▁incorporada	-6869
▁metropolitana	-6870
▁exclusivamente	-6871
Pro	-6872
▁"(	-6873
▁pi	-6874
gais	-6875
▁Leo	-6876
▁favo	-6877
▁tare	-6878
▁Baixos	-6879
▁Índice	-6880
▁oportun	-6881
▁Microsoft	-6882
▁italianos	-6883
▁(,	-6884
▁43	-6885
▁Nu	-6886
ouri	-6887
▁Rol	-6888
▁Avenida	-6889
▁carbono	-6890
▁líquido	-6891
▁indígena	-6892
têm	-6893
rame	-6894
▁15,	-6895
▁Max	-6896
▁emp	-6897
tuada	-6898
▁Base	-6899
▁Área	-6900
▁coisas	-6901
▁consol	-6902
▁resposta	-6903
▁expedição	-6904
▁alimentação	-6905
▁consideradas	-6906
cá	-6907
▁9.	-6908
ímia	-6909
▁Vin	-6910
▁Phil	-6911
▁soma	-6912
▁Frede	-6913
▁praça	-6914
▁prece	-6915
▁jornais	-6916
▁usuário	-6917
▁armazena	-6918
▁deixando	-6919
▁retornou	-6920
▁britânica	-6921
Mo	-6922
▁41	-6923
▁My	-6924
▁ré	-6925
gida	-6926
▁fan	-6927
▁1962,	-6928
tização	-6929
▁Latina	-6930
▁entrar	-6931
talidade	-6932
▁agregado	-6933
▁espanhola	-6934
Pe	-6935
Qu	-6936
▁fla	-6937
▁enca	-6938
▁Essas	-6939
▁Norue	-6940
▁Vilar	-6941
▁certa	-6942
pulação	-6943
▁repres	-6944
▁tratado	-6945
riormente	-6946
▁completa	-6947
gíp	-6948
mel	-6949
rei	-6950
▁Pá	-6951
▁Wh	-6952
iseu	-6953
▁étn	-6954
itores	-6955
▁Vasco	-6956
▁regras	-6957
▁tenham	-6958
▁Mosteiro	-6959
entar	-6960
▁Mira	-6961
▁doze	-6962
▁mata	-6963
▁culto	-6964
▁propa	-6965
▁abriga	-6966
▁premia	-6967
▁tecido	-6968
▁Batista	-6969
▁oferece	-6970
▁Brasília	-6971
▁2012/2013,	-6972
gil	-6973
▁Ala	-6974
▁hol	-6975
▁haver	-6976
▁peixe	-6977
▁aborda	-6978
▁seriam	-6979
▁Bélgica	-6980
▁respira	-6981
graf	-6982
pole	-6983
ranga	-6984
volta	-6985
▁Scho	-6986
▁Póvoa	-6987
▁Fazenda	-6988
▁poderes	-6989
▁colonial	-6990
▁científico	-6991
cin	-6992
▁zo	-6993
iada	-6994
▁175	-6995
▁cima	-6996
tância	-6997
▁calor	-6998
▁persegu	-6999
▁símbolos	-7000
▁constituem	-7001
wan	-7002
jara	-7003
▁sue	-7004
▁meia	-7005
▁metá	-7006
▁1993,	-7007
▁2010.	-7008
▁coroa	-7009
▁ganha	-7010
▁Soares	-7011
▁Unidas	-7012
▁capita	-7013
riedades	-7014
▁princípios	-7015
▁representar	-7016
dt	-7017
ilha	-7018
ster	-7019
▁peda	-7020
▁vias	-7021
▁denom	-7022
▁padre	-7023
▁volum	-7024
▁contudo	-7025
▁veículos	-7026
AP	-7027
%),	-7028
▁95	-7029
▁Ob	-7030
cano	-7031
▁Técn	-7032
▁astr	-7033
▁consa	-7034
▁deveria	-7035
▁prêmios	-7036
▁tradições	-7037
rés	-7038
▁kg	-7039
cimo	-7040
ctor	-7041
roco	-7042
irmou	-7043
órgia	-7044
teiros	-7045
▁artic	-7046
▁compe	-7047
▁nutri	-7048
▁faixas	-7049
▁conflito	-7050
▁príncipe	-7051
▁descobriu	-7052
▁fabricação	-7053
▁Gl	-7054
logo	-7055
tona	-7056
▁mel	-7057
▁Sino	-7058
gliano	-7059
choeira	-7060
▁aquele	-7061
▁atingiu	-7062
deal	-7063
▁ben	-7064
▁rep	-7065
itado	-7066
▁Luis	-7067
▁Ceará	-7068
▁Marga	-7069
▁enter	-7070
▁preocu	-7071
▁configu	-7072
▁fórmula	-7073
▁Exemplos	-7074
entecostais	-7075
ans	-7076
▁Ox	-7077
ádio	-7078
▁gig	-7079
▁Orig	-7080
▁gere	-7081
▁mono	-7082
geiros	-7083
▁múlti	-7084
▁haviam	-7085
▁confirma	-7086
▁questões	-7087
▁permitindo	-7088
▁responsáveis	-7089
▁trabalhadores	-7090
uli	-7091
▁Só	-7092
rema	-7093
▁jan	-7094
▁1991	-7095
▁Melo	-7096
▁forn	-7097
▁hipó	-7098
▁reis	-7099
▁Alago	-7100
▁diplo	-7101
▁Census	-7102
▁canais	-7103
▁mestre	-7104
gráficos	-7105
▁ocorrer	-7106
▁períodos	-7107
01	-7108
▁Sur	-7109
▁ala	-7110
deram	-7111
▁cata	-7112
▁impa	-7113
▁crité	-7114
guidade	-7115
▁sucessor	-7116
Lo	-7117
tsu	-7118
colo	-7119
rata	-7120
▁Sor	-7121
ótico	-7122
▁titu	-7123
▁hebra	-7124
▁Torres	-7125
▁rodovi	-7126
▁talvez	-7127
▁servido	-7128
rer	-7129
▁PC	-7130
▁ur	-7131
dorf	-7132
ombo	-7133
omen	-7134
▁cír	-7135
tagem	-7136
▁Anos	-7137
ulação	-7138
▁Henri	-7139
iliares	-7140
▁conden	-7141
▁Machado	-7142
▁petróleo	-7143
Or	-7144
gel	-7145
yal	-7146
▁Zu	-7147
lama	-7148
mica	-7149
iário	-7150
ínios	-7151
▁Adri	-7152
▁Juan	-7153
▁abre	-7154
▁jurí	-7155
▁rica	-7156
▁mesmos	-7157
▁poucas	-7158
▁derrota	-7159
▁equipes	-7160
▁tecidos	-7161
▁estações	-7162
▁associada	-7163
▁proteínas	-7164
▁terrestre	-7165
▁relacionados	-7166
mbo	-7167
▁88	-7168
reza	-7169
▁inú	-7170
mentas	-7171
tizado	-7172
igração	-7173
▁gregos	-7174
▁rápido	-7175
▁Democrá	-7176
▁funciona	-7177
▁península	-7178
órre	-7179
▁Água	-7180
uições	-7181
▁Belém	-7182
▁Pinto	-7183
▁Preto	-7184
▁Teres	-7185
▁altos	-7186
▁ficar	-7187
▁Coreia	-7188
▁College	-7189
▁minerais	-7190
▁fundadores	-7191
IT	-7192
mu	-7193
geu	-7194
isf	-7195
▁44	-7196
▁rej	-7197
▁gene	-7198
▁óleo	-7199
região	-7200
▁negro	-7201
roquial	-7202
▁quadro	-7203
▁Noruega	-7204
▁figuras	-7205
▁remonta	-7206
▁Francesa	-7207
die	-7208
▁cab	-7209
▁van	-7210
duras	-7211
▁trou	-7212
cência	-7213
ionado	-7214
▁notas	-7215
▁temos	-7216
▁editor	-7217
▁externa	-7218
▁Gro	-7219
ântica	-7220
▁chuvas	-7221
▁sábado	-7222
▁infância	-7223
▁paulista	-7224
Su	-7225
rás	-7226
▁Ada	-7227
tical	-7228
rupção	-7229
úmeros	-7230
▁Guiné	-7231
▁Servi	-7232
▁crise	-7233
▁Parana	-7234
terrâneo	-7235
▁assenta	-7236
▁apareceu	-7237
▁feminino	-7238
▁milhares	-7239
▁turístico	-7240
▁estudantes	-7241
▁participar	-7242
▁constelação	-7243
azz	-7244
não	-7245
▁Cá	-7246
chia	-7247
▁Gan	-7248
▁Sel	-7249
▁cav	-7250
▁Corn	-7251
▁Java	-7252
inados	-7253
▁auton	-7254
▁larga	-7255
▁vítima	-7256
▁clássico	-7257
▁sintomas	-7258
▁vermelha	-7259
▁Confederação	-7260
Ne	-7261
édia	-7262
▁Blo	-7263
▁Ron	-7264
Santa	-7265
▁Cala	-7266
▁face	-7267
▁bases	-7268
▁segun	-7269
▁Mendes	-7270
▁consci	-7271
▁redução	-7272
▁Cultural	-7273
▁Regional	-7274
▁episódio	-7275
▁vizinhos	-7276
▁Tocantins	-7277
▁artístico	-7278
▁Administração	-7279
iti	-7280
▁67	-7281
ncer	-7282
ênia	-7283
▁Lon	-7284
▁2024	-7285
▁Pinh	-7286
▁foss	-7287
▁Lácio	-7288
▁corrida	-7289
▁Formação	-7290
góvia	-7291
quinas	-7292
torado	-7293
▁hecta	-7294
▁muita	-7295
▁abrang	-7296
▁praias	-7297
▁Justiça	-7298
▁fábrica	-7299
▁retorno	-7300
▁organismos	-7301
▁património	-7302
▁representando	-7303
PG	-7304
▁CE	-7305
uela	-7306
utas	-7307
▁Dra	-7308
reiros	-7309
▁Uruguai	-7310
▁montanha	-7311
▁públicas	-7312
dige	-7313
ross	-7314
▁Die	-7315
ingen	-7316
▁Gale	-7317
enador	-7318
▁Corte	-7319
▁Júlio	-7320
▁preso	-7321
▁cartas	-7322
posições	-7323
▁internet	-7324
▁Cristianismo	-7325
▁precipitação	-7326
cções	-7327
cópio	-7328
▁Rock	-7329
▁leve	-7330
▁esque	-7331
▁vírus	-7332
▁Música	-7333
▁comemo	-7334
tificado	-7335
▁partidas	-7336
▁executivo	-7337
▁originais	-7338
▁popularmente	-7339
▁1919	-7340
▁guar	-7341
▁sala	-7342
pantes	-7343
▁arroz	-7344
▁econom	-7345
▁universo	-7346
▁atribuído	-7347
▁permanece	-7348
▁identifica	-7349
-2	-7350
AL	-7351
tch	-7352
dulo	-7353
tran	-7354
vila	-7355
▁aço	-7356
dalha	-7357
▁inva	-7358
▁arquivo	-7359
mida	-7360
▁Hal	-7361
▁Pel	-7362
▁bot	-7363
velas	-7364
▁1988	-7365
▁West	-7366
▁radia	-7367
cebispo	-7368
▁regula	-7369
▁tabela	-7370
▁mineral	-7371
▁Atlético	-7372
▁dedicada	-7373
▁próprias	-7374
▁soldados	-7375
▁transição	-7376
▁operacional	-7377
▁Dal	-7378
cagem	-7379
▁cobre	-7380
▁incen	-7381
▁incom	-7382
▁morto	-7383
▁regra	-7384
▁afluente	-7385
xido	-7386
▁Dio	-7387
caram	-7388
▁egíp	-7389
▁reci	-7390
▁educa	-7391
▁sangu	-7392
▁adoles	-7393
▁beleza	-7394
▁extrem	-7395
▁ficção	-7396
▁privil	-7397
▁Fórmula	-7398
▁negocia	-7399
▁integrar	-7400
▁telefonia	-7401
▁realizadas	-7402
▁superiores	-7403
%,	-7404
02	-7405
TS	-7406
VD	-7407
itê	-7408
tle	-7409
guar	-7410
rinta	-7411
rágio	-7412
verno	-7413
binete	-7414
cussão	-7415
linois	-7416
▁primo	-7417
questra	-7418
▁Vieira	-7419
▁avança	-7420
▁discipl	-7421
▁especificamente	-7422
04	-7423
amo	-7424
licas	-7425
íblia	-7426
úncia	-7427
▁1994	-7428
▁Tejo	-7429
▁Mário	-7430
▁vivos	-7431
▁Matriz	-7432
▁câmara	-7433
▁divisões	-7434
▁Classificação	-7435
gg	-7436
Car	-7437
rey	-7438
gnós	-7439
wood	-7440
▁VII	-7441
▁2023,	-7442
▁Hidro	-7443
▁Milão	-7444
▁Turim	-7445
▁possa	-7446
▁General	-7447
▁medidas	-7448
▁dependendo	-7449
MS	-7450
fen	-7451
íqu	-7452
▁Win	-7453
▁oce	-7454
vante	-7455
▁vira	-7456
▁2006.	-7457
▁ativa	-7458
▁hospe	-7459
isfério	-7460
ramento	-7461
▁Joseph	-7462
▁aceita	-7463
▁ordens	-7464
▁provém	-7465
▁sucess	-7466
▁clássica	-7467
▁completo	-7468
▁manutenção	-7469
▁interpretação	-7470
dãos	-7471
iação	-7472
▁custo	-7473
▁escal	-7474
▁tribu	-7475
▁agrupa	-7476
▁definido	-7477
▁moléculas	-7478
▁funcionamento	-7479
▁essencialmente	-7480
inc	-7481
▁178	-7482
▁Cun	-7483
geral	-7484
▁perce	-7485
▁Daniel	-7486
▁deixar	-7487
▁fabric	-7488
▁cenário	-7489
▁canadense	-7490
set	-7491
▁Ku	-7492
▁Ira	-7493
▁Carl	-7494
▁Teix	-7495
▁curto	-7496
▁inten	-7497
▁opini	-7498
iologia	-7499
quistão	-7500
▁porção	-7501
malmente	-7502
▁Química	-7503
▁circuito	-7504
▁Horizonte	-7505
▁episódios	-7506
▁Engenharia	-7507
▁conservação	-7508
▁hidrográfica	-7509
Po	-7510
lix	-7511
▁54	-7512
chal	-7513
naval	-7514
▁boca	-7515
▁orna	-7516
▁human	-7517
▁sonora	-7518
▁séries	-7519
▁derivado	-7520
▁hectares	-7521
▁produziu	-7522
▁variação	-7523
▁Fernandes	-7524
▁possíveis	-7525
▁Comunicações	-7526
face	-7527
giões	-7528
ônios	-7529
tárias	-7530
▁Pesso	-7531
▁poema	-7532
▁vídeo	-7533
▁Antiga	-7534
▁Origem	-7535
▁reprodução	-7536
▁Xa	-7537
Alto	-7538
eitas	-7539
tatus	-7540
▁domés	-7541
▁fácil	-7542
▁ondas	-7543
Lei	-7544
érico	-7545
▁1992	-7546
ólogos	-7547
▁Minho	-7548
▁mortos	-7549
▁Colégio	-7550
▁amarelo	-7551
▁sacerdo	-7552
▁encontro	-7553
▁inúmeras	-7554
partamentos	-7555
▁Parlamento	-7556
▁fortemente	-7557
lie	-7558
tomos	-7559
▁Atra	-7560
▁edita	-7561
▁nação	-7562
timento	-7563
▁cadeia	-7564
▁causar	-7565
▁raízes	-7566
▁renome	-7567
▁espaços	-7568
▁europeu	-7569
▁alfabeto	-7570
▁bissexto	-7571
▁paisagem	-7572
▁estabelecer	-7573
Cas	-7574
eil	-7575
▁Bran	-7576
▁vide	-7577
▁Feira	-7578
▁junção	-7579
▁famosos	-7580
▁Pinheiro	-7581
▁aumentar	-7582
▁compreen	-7583
▁utilizam	-7584
ym	-7585
une	-7586
▁line	-7587
tativa	-7588
éticas	-7589
▁Patri	-7590
▁trouxe	-7591
▁ultrap	-7592
▁Geralmente	-7593
▁dominicais	-7594
▁actualmente	-7595
▁contemporân	-7596
Ad	-7597
reu	-7598
▁vie	-7599
terno	-7600
óquio	-7601
▁cara	-7602
▁mora	-7603
▁show	-7604
rinhas	-7605
▁atrib	-7606
▁cujos	-7607
elândia	-7608
▁Atenas	-7609
▁Tribunal	-7610
▁sepultado	-7611
▁estabelecimento	-7612
▁Pé	-7613
▁Bou	-7614
media	-7615
▁eixo	-7616
▁trib	-7617
pécies	-7618
▁Baixa	-7619
▁Cunha	-7620
mentada	-7621
▁certos	-7622
▁coleção	-7623
▁padrões	-7624
▁homenage	-7625
▁plataforma	-7626
▁profundidade	-7627
%)	-7628
tha	-7629
▁ál	-7630
nior	-7631
▁Mag	-7632
▁Obs	-7633
▁les	-7634
forte	-7635
ingle	-7636
▁1950,	-7637
▁breve	-7638
tologia	-7639
▁contras	-7640
▁estreou	-7641
▁adaptação	-7642
▁afluentes	-7643
jus	-7644
tade	-7645
tios	-7646
elhas	-7647
▁flor	-7648
▁reba	-7649
▁Forte	-7650
▁areia	-7651
▁tomou	-7652
▁Garcia	-7653
▁cargos	-7654
▁Cruzeiro	-7655
▁montanhos	-7656
▁apresentado	-7657
▁administrativo	-7658
kov	-7659
nal	-7660
▁Fi	-7661
bera	-7662
chio	-7663
▁Pala	-7664
▁Soci	-7665
étricas	-7666
▁Branca	-7667
▁classes	-7668
▁similar	-7669
▁percurso	-7670
▁disponível	-7671
▁apresentando	-7672
▁investigação	-7673
IA	-7674
zza	-7675
▁58	-7676
▁Wi	-7677
omos	-7678
▁rel	-7679
▁suí	-7680
ónica	-7681
▁alvo	-7682
▁tron	-7683
▁Award	-7684
▁Verão	-7685
▁cauda	-7686
ometria	-7687
▁amplia	-7688
tilidade	-7689
▁presidência	-7690
08	-7691
_2	-7692
cais	-7693
mith	-7694
▁magni	-7695
▁Marques	-7696
▁intelec	-7697
iversário	-7698
▁alimento	-7699
▁próximas	-7700
▁pensamento	-7701
▁passageiros	-7702
kon	-7703
mac	-7704
vino	-7705
▁neu	-7706
▁ora	-7707
ander	-7708
cócia	-7709
small	-7710
verde	-7711
▁Mari	-7712
▁comem	-7713
tivesse	-7714
▁alcança	-7715
▁sobreviv	-7716
05	-7717
▁dí	-7718
orro	-7719
▁Ria	-7720
tinha	-7721
▁Columb	-7722
▁pratic	-7723
mentares	-7724
▁Moreira	-7725
▁músicos	-7726
▁mantendo	-7727
▁partidos	-7728
▁usuários	-7729
▁Aeroporto	-7730
▁religiosos	-7731
administrativa	-7732
PE	-7733
RO	-7734
▁Lá	-7735
vial	-7736
▁Blu	-7737
▁Lec	-7738
ronze	-7739
▁Dona	-7740
▁cura	-7741
▁Homem	-7742
▁apoia	-7743
▁escon	-7744
ologias	-7745
▁marcou	-7746
▁notável	-7747
▁Encontra	-7748
▁cientistas	-7749
▁desempenho	-7750
▁acele	-7751
▁pobre	-7752
▁Sudeste	-7753
▁sanguín	-7754
och	-7755
▁pó	-7756
▁Mate	-7757
itária	-7758
izaram	-7759
▁Rocha	-7760
▁Valle	-7761
tegoria	-7762
▁naquele	-7763
▁possuir	-7764
▁fenômeno	-7765
▁anualmente	-7766
El	-7767
▁•	-7768
jar	-7769
▁IX	-7770
▁Gama	-7771
▁deca	-7772
▁sobe	-7773
Americ	-7774
▁Andra	-7775
▁delim	-7776
▁polic	-7777
Romanha	-7778
▁aberta	-7779
▁feijão	-7780
▁pedido	-7781
▁ciências	-7782
▁turistas	-7783
af	-7784
aza	-7785
rizon	-7786
▁Abruz	-7787
▁Padre	-7788
▁cujas	-7789
▁solos	-7790
▁tocar	-7791
▁Figuei	-7792
▁corpos	-7793
▁encerra	-7794
▁europeia	-7795
▁recebido	-7796
▁satélite	-7797
▁produzidos	-7798
▁visitantes	-7799
▁disponíveis	-7800
09	-7801
delo	-7802
paro	-7803
rela	-7804
deres	-7805
▁Cabe	-7806
▁acid	-7807
▁humor	-7808
portiva	-7809
▁envolve	-7810
▁autoridade	-7811
bon	-7812
rac	-7813
▁rí	-7814
gara	-7815
▁Bob	-7816
▁cou	-7817
▁1985	-7818
gueiro	-7819
▁legal	-7820
▁preto	-7821
▁Rainha	-7822
▁Escócia	-7823
▁Integra	-7824
▁Toscana	-7825
▁separação	-7826
▁empresário	-7827
sex	-7828
ère	-7829
asta	-7830
▁17,	-7831
▁bru	-7832
tolome	-7833
ônibus	-7834
▁1989,	-7835
▁Coroa	-7836
▁Mesmo	-7837
▁Barros	-7838
▁Dentre	-7839
▁chamou	-7840
▁Estudos	-7841
▁ataques	-7842
▁advogado	-7843
▁emissora	-7844
GC	-7845
fan	-7846
ossa	-7847
quil	-7848
sequ	-7849
▁Hip	-7850
▁Ima	-7851
▁cirur	-7852
▁palco	-7853
izadores	-7854
▁acompan	-7855
▁criados	-7856
▁candidato	-7857
▁espiritual	-7858
▁Spe	-7859
icago	-7860
ógico	-7861
▁1986	-7862
▁2019	-7863
▁asas	-7864
▁paco	-7865
▁Festa	-7866
▁molec	-7867
ísticas	-7868
▁baixas	-7869
▁matriz	-7870
▁revela	-7871
▁tensão	-7872
▁Estrela	-7873
▁intelig	-7874
▁incluído	-7875
▁modernos	-7876
nio	-7877
espe	-7878
▁pis	-7879
cesso	-7880
▁Geor	-7881
▁Bispo	-7882
▁longe	-7883
▁Francis	-7884
▁exceção	-7885
▁missões	-7886
▁permitiu	-7887
▁56	-7888
ásia	-7889
ório	-7890
▁20,	-7891
▁Sus	-7892
tions	-7893
▁2018	-7894
▁Rita	-7895
▁reno	-7896
▁sovi	-7897
▁toca	-7898
▁Situa	-7899
▁mudar	-7900
▁ponta	-7901
▁teleno	-7902
▁Guilher	-7903
▁invasão	-7904
▁Catalunha	-7905
▁classificada	-7906
▁protestantes	-7907
▁independentes	-7908
06	-7909
alo	-7910
▁(2	-7911
▁Bul	-7912
assem	-7913
gindo	-7914
▁hipo	-7915
ignano	-7916
▁recus	-7917
▁desemb	-7918
▁Miranda	-7919
▁Conserva	-7920
▁adquiriu	-7921
▁limitado	-7922
▁vencedor	-7923
▁arquiteto	-7924
▁religiões	-7925
▁dispositivo	-7926
▁guitarrista	-7927
▁integrantes	-7928
ami	-7929
▁(),	-7930
▁11.	-7931
veira	-7932
▁Povo	-7933
▁morf	-7934
▁pseu	-7935
▁marco	-7936
▁assina	-7937
▁poemas	-7938
▁escolha	-7939
▁alcançou	-7940
▁conheceu	-7941
▁resultou	-7942
çam	-7943
duto	-7944
▁16,	-7945
▁Vig	-7946
▁inv	-7947
▁Mont	-7948
▁solu	-7949
cionar	-7950
▁confe	-7951
▁quiló	-7952
▁deseja	-7953
▁poderá	-7954
eck	-7955
enco	-7956
▁mín	-7957
▁tip	-7958
▁banco	-7959
▁compra	-7960
▁Salaman	-7961
▁celebra	-7962
▁existia	-7963
▁responsa	-7964
▁autonomia	-7965
▁distintas	-7966
▁circulação	-7967
▁suficiente	-7968
▁reconhecida	-7969
07	-7970
além	-7971
erta	-7972
▁dan	-7973
presa	-7974
timas	-7975
▁Abra	-7976
▁frag	-7977
▁plás	-7978
▁Aldeias	-7979
▁nuclear	-7980
▁organizações	-7981
▁Lee	-7982
dicas	-7983
▁pesa	-7984
▁brilh	-7985
▁surge	-7986
▁planos	-7987
▁adultos	-7988
tificação	-7989
▁Professor	-7990
▁descrição	-7991
▁publicados	-7992
▁universidades	-7993
prim	-7994
rese	-7995
teor	-7996
▁177	-7997
▁Taxa	-7998
▁Tecn	-7999
▁flui	-8000
versão	-8001
▁Carta	-8002
▁lados	-8003
▁raios	-8004
▁explic	-8005
▁Estação	-8006
▁ocupada	-8007
▁Carolina	-8008
▁Paraguai	-8009
▁cidadãos	-8010
▁filósofo	-8011
▁mecânica	-8012
▁restantes	-8013
ent	-8014
garo	-8015
ápol	-8016
▁Top	-8017
▁2014	-8018
▁Bíblia	-8019
▁servir	-8020
▁átomos	-8021
▁secretário	-8022
▁Constantino	-8023
AN	-8024
▁Sr	-8025
▁19,	-8026
▁beb	-8027
▁1940	-8028
▁Pare	-8029
▁pene	-8030
▁reve	-8031
formou	-8032
▁Henry	-8033
▁esten	-8034
▁evang	-8035
▁depende	-8036
▁escravos	-8037
▁vizinhas	-8038
▁crescente	-8039
▁diferenças	-8040
▁vereadores	-8041
▁classificados	-8042
sk	-8043
▁Ú	-8044
omé	-8045
vie	-8046
▁ria	-8047
ystem	-8048
▁1864	-8049
▁1964,	-8050
▁Livro	-8051
▁Humano	-8052
▁Natural	-8053
▁Sinopse	-8054
▁interno	-8055
▁Ligações	-8056
▁Trentino	-8057
▁desenhos	-8058
▁altamente	-8059
▁conceitos	-8060
▁integrante	-8061
▁portuguesas	-8062
▁dificuldades	-8063
BA	-8064
rir	-8065
veja	-8066
▁PIB	-8067
▁Sco	-8068
tiram	-8069
▁Reno	-8070
▁lagos	-8071
▁parla	-8072
▁aglome	-8073
▁Arquite	-8074
▁negócios	-8075
▁próximos	-8076
▁específico	-8077
▁aniversário	-8078
▁),	-8079
▁12.	-8080
▁Bio	-8081
gonha	-8082
timos	-8083
▁1982	-8084
▁shows	-8085
▁Arthur	-8086
▁precis	-8087
▁segundos	-8088
▁representantes	-8089
BS	-8090
mil	-8091
mira	-8092
ótica	-8093
▁Stre	-8094
▁céle	-8095
▁destr	-8096
▁recol	-8097
▁vanta	-8098
▁Ádige	-8099
▁Madeira	-8100
▁comercia	-8101
▁críticas	-8102
▁constituir	-8103
ct	-8104
▁Ly	-8105
ball	-8106
péis	-8107
énio	-8108
▁lib	-8109
▁Avel	-8110
▁Taça	-8111
tragem	-8112
▁Ferra	-8113
▁Natal	-8114
▁Viseu	-8115
▁cópias	-8116
▁latino	-8117
▁Records	-8118
▁elevação	-8119
▁gravação	-8120
▁interval	-8121
▁vocalista	-8122
íso	-8123
▁teó	-8124
▁Giul	-8125
▁Tomé	-8126
▁saiu	-8127
gações	-8128
▁Conta	-8129
▁açúcar	-8130
▁idioma	-8131
▁Cardoso	-8132
▁ligados	-8133
▁últimas	-8134
▁máquinas	-8135
▁profunda	-8136
▁progress	-8137
▁telefones	-8138
▁realizados	-8139
▁continental	-8140
SI	-8141
tei	-8142
doro	-8143
tebra	-8144
íbrio	-8145
▁Star	-8146
▁baix	-8147
ftware	-8148
▁Cente	-8149
▁Execu	-8150
▁Moura	-8151
▁Santar	-8152
▁coluna	-8153
▁mesmas	-8154
gráficas	-8155
▁anexada	-8156
▁equação	-8157
▁líderes	-8158
▁riqueza	-8159
▁Ribeirão	-8160
▁hospital	-8161
▁imprensa	-8162
▁indicado	-8163
▁seguindo	-8164
▁fronteiras	-8165
dém	-8166
idal	-8167
tten	-8168
▁Tel	-8169
▁web	-8170
▁Arqu	-8171
▁Pers	-8172
▁fran	-8173
▁ficam	-8174
▁foral	-8175
▁judic	-8176
▁Público	-8177
inalmente	-8178
▁Guilherme	-8179
▁encontrou	-8180
▁recebendo	-8181
▁patrimônio	-8182
▁imediatamente	-8183
ben	-8184
try	-8185
▁mi	-8186
irou	-8187
dutor	-8188
▁Marc	-8189
▁Rodo	-8190
▁pere	-8191
▁2024,	-8192
▁Velha	-8193
▁ramos	-8194
▁Jornal	-8195
▁Sérgio	-8196
▁propós	-8197
▁ônibus	-8198
▁Ricardo	-8199
▁engloba	-8200
▁volumes	-8201
▁mosteiro	-8202
▁práticas	-8203
▁quadrado	-8204
▁possivelmente	-8205
▁62	-8206
andro	-8207
dindo	-8208
istos	-8209
▁2015	-8210
▁1801,	-8211
▁ativo	-8212
▁perió	-8213
▁pluvi	-8214
▁tentou	-8215
▁tribos	-8216
▁fornece	-8217
▁Amazonas	-8218
▁disputou	-8219
▁notáveis	-8220
▁designada	-8221
▁registros	-8222
▁situações	-8223
▁desenvolvida	-8224
▁administrativas	-8225
NE	-8226
San	-8227
▁audi	-8228
▁crom	-8229
▁reto	-8230
▁rico	-8231
ósseis	-8232
▁inven	-8233
▁testem	-8234
▁Nascido	-8235
▁sufrágio	-8236
▁inaugurada	-8237
▁Localidades	-8238
%).	-8239
tér	-8240
Vila	-8241
▁1979	-8242
▁Frie	-8243
▁Impe	-8244
▁desf	-8245
▁turn	-8246
▁Junta	-8247
▁Madri	-8248
▁Rádio	-8249
▁senho	-8250
▁trecho	-8251
▁Igrejas	-8252
▁ficaram	-8253
▁lateral	-8254
▁Terceira	-8255
▁inúmeros	-8256
▁permitem	-8257
▁comandante	-8258
▁iniciativa	-8259
▁verdadeira	-8260
▁:	-8261
úne	-8262
▁ni	-8263
cife	-8264
▁voto	-8265
▁hiper	-8266
culares	-8267
▁Franca	-8268
▁ameaça	-8269
▁papéis	-8270
▁Teixeira	-8271
▁colocado	-8272
▁descrito	-8273
▁populoso	-8274
▁posições	-8275
▁vegetais	-8276
▁variações	-8277
▁compreende	-8278
MP	-8279
ña	-8280
25,	-8281
eme	-8282
▁Ec	-8283
eixe	-8284
▁Fez	-8285
▁vér	-8286
liana	-8287
▁1981	-8288
▁Gene	-8289
viação	-8290
▁graus	-8291
▁leito	-8292
eamente	-8293
▁Aragão	-8294
▁School	-8295
▁compila	-8296
▁conflitos	-8297
▁Governador	-8298
osó	-8299
▁75	-8300
guia	-8301
hães	-8302
kins	-8303
lina	-8304
vier	-8305
▁Quin	-8306
▁vulc	-8307
▁canto	-8308
ponímia	-8309
▁Contin	-8310
▁rurais	-8311
▁Conside	-8312
▁abrange	-8313
▁funcional	-8314
▁populações	-8315
▁quantidades	-8316
fun	-8317
–19	-8318
peão	-8319
▁Ens	-8320
▁Son	-8321
▁jus	-8322
oledo	-8323
▁Anda	-8324
▁Ross	-8325
▁VIII	-8326
▁fotos	-8327
▁mídia	-8328
▁abaste	-8329
▁explos	-8330
▁passam	-8331
▁liberal	-8332
▁veículo	-8333
▁surgiram	-8334
▁pertenceu	-8335
▁alterações	-8336
▁surgimento	-8337
▁Localização	-8338
▁construções	-8339
Gu	-8340
▁;	-8341
trio	-8342
▁600	-8343
▁tea	-8344
teros	-8345
êncio	-8346
▁Alente	-8347
▁certas	-8348
▁brancos	-8349
▁ascensão	-8350
▁bactérias	-8351
▁posteriores	-8352
RE	-8353
hel	-8354
tuba	-8355
ressa	-8356
vânia	-8357
▁Cuba	-8358
▁raça	-8359
▁coman	-8360
▁Franco	-8361
▁Quanto	-8362
▁ajudar	-8363
▁dentes	-8364
▁exceto	-8365
▁queima	-8366
▁acumula	-8367
TEL	-8368
cool	-8369
hóis	-8370
moto	-8371
ogen	-8372
gínia	-8373
renos	-8374
▁admi	-8375
▁reta	-8376
ritiba	-8377
▁Viana	-8378
▁intes	-8379
▁govern	-8380
▁senhor	-8381
pecuária	-8382
▁Gonçalo	-8383
▁circuns	-8384
▁elétrons	-8385
▁magnitude	-8386
▁transferência	-8387
PC	-8388
▁Oc	-8389
ridi	-8390
▁18,	-8391
▁Vill	-8392
▁devo	-8393
▁prev	-8394
▁Então	-8395
▁aceito	-8396
▁metais	-8397
▁milhão	-8398
▁ruínas	-8399
▁católica	-8400
▁originou	-8401
▁potência	-8402
▁restante	-8403
▁autoridades	-8404
▁estrangeiros	-8405
▁participantes	-8406
)"	-8407
FC	-8408
põe	-8409
dere	-8410
▁You	-8411
diram	-8412
estes	-8413
▁raiz	-8414
▁Montes	-8415
▁câncer	-8416
▁parede	-8417
▁quebra	-8418
licações	-8419
▁Cidades	-8420
▁imperial	-8421
▁Apresenta	-8422
▁pertencem	-8423
▁correspondente	-8424
ML	-8425
Bre	-8426
éus	-8427
▁Fr	-8428
▁Lé	-8429
iclo	-8430
tola	-8431
▁1977	-8432
▁Cima	-8433
▁cena	-8434
▁frio	-8435
▁tido	-8436
▁1963,	-8437
▁durou	-8438
▁Bairro	-8439
▁chefia	-8440
▁colonos	-8441
▁arquitec	-8442
▁centenas	-8443
▁proximidades	-8444
Da	-8445
fu	-8446
Ins	-8447
▁dú	-8448
▁Are	-8449
▁Civ	-8450
▁DVD	-8451
▁Spa	-8452
▁emo	-8453
▁viu	-8454
Oeste	-8455
ganda	-8456
▁ilum	-8457
▁1985,	-8458
▁1988,	-8459
▁Canal	-8460
▁Supre	-8461
▁apari	-8462
▁(2006)	-8463
▁chinês	-8464
▁consta	-8465
▁descar	-8466
▁provas	-8467
gnóstico	-8468
▁raramente	-8469
hio	-8470
riu	-8471
meas	-8472
tomo	-8473
ívia	-8474
▁Lig	-8475
▁Lus	-8476
▁Sig	-8477
▁fel	-8478
▁igua	-8479
lesiás	-8480
▁2000.	-8481
▁Estra	-8482
▁fogue	-8483
cionado	-8484
▁direto	-8485
▁géneros	-8486
▁inteira	-8487
▁diagrama	-8488
▁aeronaves	-8489
▁ambiental	-8490
▁católicos	-8491
▁eletrônica	-8492
Me	-8493
âns	-8494
▁vê	-8495
nada	-8496
omor	-8497
ferra	-8498
▁Mons	-8499
▁emba	-8500
▁hora	-8501
cracia	-8502
▁taxon	-8503
▁Tóquio	-8504
▁ficava	-8505
distrito	-8506
▁esporte	-8507
▁Vermelho	-8508
▁Movimento	-8509
TO	-8510
nor	-8511
▁Luz	-8512
▁ordena	-8513
▁trilha	-8514
▁virtude	-8515
▁Salamanca	-8516
▁entidades	-8517
▁Biblioteca	-8518
▁actividade	-8519
▁implantada	-8520
hl	-8521
ili	-8522
tema	-8523
táce	-8524
verm	-8525
▁geo	-8526
▁isl	-8527
▁Cláu	-8528
▁Rena	-8529
▁indo	-8530
▁Helena	-8531
▁juntou	-8532
▁aprecia	-8533
▁existir	-8534
▁marcado	-8535
▁paredes	-8536
▁recense	-8537
taneamente	-8538
Il	-8539
fin	-8540
uss	-8541
lias	-8542
nova	-8543
poss	-8544
quin	-8545
▁Hall	-8546
▁Medi	-8547
▁oita	-8548
▁Prata	-8549
▁Évora	-8550
▁Coelho	-8551
▁Puglia	-8552
▁ocupou	-8553
▁brancas	-8554
▁Convento	-8555
▁construiu	-8556
▁associados	-8557
▁combinação	-8558
▁finalidade	-8559
▁%	-8560
sores	-8561
trica	-8562
▁Pires	-8563
▁vento	-8564
▁Edward	-8565
▁advers	-8566
▁juntos	-8567
▁Europeu	-8568
▁Programa	-8569
▁espanhóis	-8570
▁verdadeiro	-8571
Ha	-8572
clo	-8573
sey	-8574
▁pens	-8575
plares	-8576
▁1961,	-8577
▁chuva	-8578
▁rival	-8579
▁tomar	-8580
▁castel	-8581
▁fossem	-8582
▁quinto	-8583
▁variam	-8584
▁diploma	-8585
▁descreve	-8586
▁promover	-8587
▁brasileiras	-8588
hr	-8589
▁ax	-8590
▁Nel	-8591
▁fon	-8592
▁qua	-8593
▁2001.	-8594
▁aérea	-8595
▁deram	-8596
▁evolu	-8597
▁Duarte	-8598
▁Prémio	-8599
▁datada	-8600
▁testes	-8601
▁estradas	-8602
▁membrana	-8603
Bo	-8604
fol	-8605
ixão	-8606
▁Lic	-8607
▁Alia	-8608
▁Pico	-8609
▁clín	-8610
▁quei	-8611
idação	-8612
portar	-8613
▁1979,	-8614
▁Green	-8615
▁convo	-8616
▁idiomas	-8617
▁coloração	-8618
▁encontrava	-8619
▁relacionadas	-8620
▁Anteriormente	-8621
pio	-8622
▁66	-8623
quei	-8624
▁Lau	-8625
ômbia	-8626
▁Pequ	-8627
ientes	-8628
inamar	-8629
tuação	-8630
▁Ponta	-8631
▁grave	-8632
▁mergul	-8633
▁Barbosa	-8634
▁Editora	-8635
▁horizon	-8636
▁Paróquia	-8637
▁integral	-8638
▁Gregoriano	-8639
▁quilómetros	-8640
IS	-8641
fó	-8642
estre	-8643
junto	-8644
rebro	-8645
risto	-8646
▁plas	-8647
▁rota	-8648
▁Passa	-8649
▁Valen	-8650
titudes	-8651
▁assegu	-8652
▁página	-8653
▁camadas	-8654
▁marcada	-8655
▁Alentejo	-8656
▁licencia	-8657
▁Constitucional	-8658
ek	-8659
amá	-8660
gamo	-8661
▁Mem	-8662
▁sab	-8663
trato	-8664
▁Todas	-8665
▁apaix	-8666
▁Buenos	-8667
▁causas	-8668
▁descrita	-8669
▁ligações	-8670
▁padronização	-8671
zio	-8672
▁Lua	-8673
ginas	-8674
▁dito	-8675
▁seco	-8676
reiras	-8677
▁ances	-8678
▁Comics	-8679
▁antrop	-8680
▁carros	-8681
▁ganhar	-8682
▁exibida	-8683
▁fundida	-8684
▁leitura	-8685
▁nativos	-8686
▁espírito	-8687
▁oxigênio	-8688
▁navegação	-8689
▁regionais	-8690
▁University	-8691
▁parlamento	-8692
▁colaboração	-8693
ant	-8694
centa	-8695
lusão	-8696
▁Hill	-8697
▁Mark	-8698
▁esté	-8699
▁pref	-8700
▁refu	-8701
▁Gabri	-8702
▁Venez	-8703
▁avião	-8704
▁embri	-8705
▁preju	-8706
▁traje	-8707
idência	-8708
▁Chicago	-8709
▁auxilia	-8710
Categoria	-8711
▁estimativas	-8712
▁instalações	-8713
▁distribuídos	-8714
rich	-8715
▁Hei	-8716
▁fixa	-8717
▁della	-8718
▁norma	-8719
gadores	-8720
▁Aveiro	-8721
▁obtido	-8722
▁restos	-8723
▁Polônia	-8724
▁ausência	-8725
▁referida	-8726
▁resultando	-8727
▁dispositivos	-8728
▁transformação	-8729
▁$	-8730
itam	-8731
tono	-8732
▁Bir	-8733
▁ina	-8734
sação	-8735
▁1911	-8736
▁Senado	-8737
▁gerais	-8738
▁nativa	-8739
▁atração	-8740
▁atravessa	-8741
▁literária	-8742
▁produtores	-8743
▁relacionada	-8744
▁departamentos	-8745
Ra	-8746
kh	-8747
-20	-8748
vina	-8749
▁Ped	-8750
▁las	-8751
ersão	-8752
rigor	-8753
▁Cham	-8754
uração	-8755
usalém	-8756
▁1986,	-8757
▁placa	-8758
▁atravess	-8759
▁festival	-8760
▁liderança	-8761
▁exemplares	-8762
Cam	-8763
ont	-8764
ore	-8765
zar	-8766
▁Tá	-8767
ouse	-8768
▁159	-8769
nesse	-8770
▁Toda	-8771
▁voos	-8772
▁Juven	-8773
▁Morro	-8774
▁Terme	-8775
▁procu	-8776
▁rocha	-8777
étricos	-8778
▁medica	-8779
▁Abruzos	-8780
▁benefic	-8781
▁dinamar	-8782
▁ilustra	-8783
▁licença	-8784
▁Bernardo	-8785
▁variável	-8786
▁basicamente	-8787
IP	-8788
imp	-8789
ille	-8790
tara	-8791
árqu	-8792
▁cra	-8793
inato	-8794
minal	-8795
▁Guar	-8796
▁amos	-8797
▁intu	-8798
▁sonda	-8799
▁ajudou	-8800
▁voltar	-8801
▁adotado	-8802
▁colônia	-8803
▁aparecem	-8804
▁permitir	-8805
▁Geográfica	-8806
▁parcialmente	-8807
ER	-8808
▁Foz	-8809
ílica	-8810
▁1975	-8811
▁Azul	-8812
▁Mary	-8813
▁poli	-8814
ration	-8815
▁1938,	-8816
▁1948,	-8817
▁Obras	-8818
▁frase	-8819
▁Pietro	-8820
▁típica	-8821
▁império	-8822
▁Monteiro	-8823
▁Nogueira	-8824
▁consegue	-8825
▁conselho	-8826
▁terrenos	-8827
▁alimentar	-8828
▁muçulmanos	-8829
▁proximidade	-8830
▁estabelecido	-8831
ius	-8832
ales	-8833
bara	-8834
fato	-8835
gava	-8836
heim	-8837
igas	-8838
rome	-8839
▁160	-8840
▁Aze	-8841
▁dro	-8842
bidas	-8843
ônias	-8844
▁Carn	-8845
▁nerv	-8846
▁austr	-8847
▁filhas	-8848
▁Capitão	-8849
▁Colônia	-8850
▁Geórgia	-8851
▁atletas	-8852
▁hebraico	-8853
▁aeroporto	-8854
▁transporta	-8855
FR	-8856
diz	-8857
ghe	-8858
gên	-8859
cura	-8860
idor	-8861
iados	-8862
istiu	-8863
versa	-8864
▁Tour	-8865
▁germ	-8866
▁minas	-8867
▁passo	-8868
▁prédio	-8869
▁trinta	-8870
▁dirigiu	-8871
▁impacto	-8872
▁suporta	-8873
▁objetivos	-8874
▁povoações	-8875
▁biblioteca	-8876
luz	-8877
▁57	-8878
▁Má	-8879
▁gr	-8880
asso	-8881
cala	-8882
ding	-8883
sede	-8884
tolo	-8885
▁rode	-8886
▁vaga	-8887
▁Magal	-8888
▁dedicado	-8889
▁gerencia	-8890
▁percorre	-8891
▁destruição	-8892
▁Ps	-8893
pino	-8894
▁Ves	-8895
▁nós	-8896
▁vaz	-8897
borou	-8898
▁acha	-8899
▁cere	-8900
inossa	-8901
mática	-8902
terais	-8903
▁2003.	-8904
▁Brian	-8905
▁banha	-8906
▁chave	-8907
▁dever	-8908
▁incên	-8909
▁ossos	-8910
▁National	-8911
▁cobertura	-8912
▁industria	-8913
▁americanos	-8914
▁microrregião	-8915
AT	-8916
xá	-8917
far	-8918
wor	-8919
▁bí	-8920
pria	-8921
íaca	-8922
▁Zam	-8923
▁bud	-8924
itada	-8925
raram	-8926
▁Andre	-8927
▁Viena	-8928
▁cated	-8929
▁pares	-8930
▁subme	-8931
▁repeti	-8932
▁criador	-8933
▁Colômbia	-8934
▁Comunidade	-8935
▁Socialista	-8936
▁historiadores	-8937
ep	-8938
▁Ame	-8939
▁Cho	-8940
▁ner	-8941
renta	-8942
▁1974	-8943
▁1987	-8944
▁Quar	-8945
▁obri	-8946
▁1982,	-8947
▁1990.	-8948
▁exerc	-8949
▁nações	-8950
▁rápida	-8951
▁Ibérica	-8952
▁Inverno	-8953
▁emprego	-8954
▁físicas	-8955
▁fósseis	-8956
▁pluviom	-8957
▁quentes	-8958
▁vontade	-8959
▁dimensão	-8960
▁Jerusalém	-8961
▁conjuntos	-8962
▁critérios	-8963
▁comparação	-8964
▁econômicas	-8965
▁hidrogênio	-8966
▁relacionado	-8967
▁experiências	-8968
pá	-8969
sé	-8970
kin	-8971
phy	-8972
ivis	-8973
▁Fic	-8974
▁Mei	-8975
urada	-8976
▁Auto	-8977
▁Jaco	-8978
▁caiu	-8979
▁miss	-8980
▁1987,	-8981
▁Apare	-8982
▁selva	-8983
▁carvão	-8984
▁concre	-8985
▁provin	-8986
▁castelh	-8987
▁instalada	-8988
▁automáticos	-8989
».	-8990
Ven	-8991
crá	-8992
▁('	-8993
ciam	-8994
tore	-8995
▁176	-8996
▁coo	-8997
▁exi	-8998
▁hel	-8999
▁lou	-9000
undos	-9001
▁Camar	-9002
▁Imedia	-9003
▁status	-9004
▁sólido	-9005
▁Santarém	-9006
▁assuntos	-9007
▁Cachoeira	-9008
▁disponibil	-9009
▁introdução	-9010
▁referências	-9011
itz	-9012
▁Bá	-9013
▁Umb	-9014
essem	-9015
gente	-9016
▁Alba	-9017
▁Araú	-9018
▁cron	-9019
ggiore	-9020
▁comba	-9021
▁detal	-9022
ilvânia	-9023
▁alguém	-9024
▁crítico	-9025
▁incluir	-9026
▁motivos	-9027
▁Particip	-9028
▁domínios	-9029
▁habitada	-9030
▁Imperador	-9031
▁atmosfera	-9032
▁necessária	-9033
▁substituição	-9034
▁International	-9035
ama	-9036
ema	-9037
ancia	-9038
bitos	-9039
turno	-9040
▁1976	-9041
▁1978	-9042
▁1983	-9043
▁Quei	-9044
▁carn	-9045
▁você	-9046
▁mínimo	-9047
▁tratar	-9048
▁levaram	-9049
▁ferramentas	-9050
▁proprietário	-9051
Para	-9052
engo	-9053
gata	-9054
ávia	-9055
▁Pio	-9056
▁ran	-9057
gidos	-9058
ngelo	-9059
peias	-9060
rania	-9061
▁Fale	-9062
▁fama	-9063
▁1969,	-9064
▁1974,	-9065
▁Afric	-9066
▁vinha	-9067
▁livres	-9068
▁modern	-9069
▁prolon	-9070
▁Zelândia	-9071
▁comemora	-9072
▁recupera	-9073
▁ocorrência	-9074
-3	-9075
lou	-9076
zea	-9077
isse	-9078
seca	-9079
▁254	-9080
▁Sau	-9081
▁gar	-9082
itera	-9083
âmico	-9084
Lisboa	-9085
onatos	-9086
▁Filip	-9087
▁vapor	-9088
tolomeu	-9089
▁Cambri	-9090
▁Começou	-9091
▁naquela	-9092
▁convidado	-9093
▁resolução	-9094
▁registrada	-9095
-200	-9096
tive	-9097
▁1964	-9098
▁Cres	-9099
▁aque	-9100
▁parc	-9101
▁gases	-9102
▁Pierre	-9103
mediária	-9104
▁inteiro	-9105
▁discagem	-9106
▁aparência	-9107
▁representada	-9108
ser	-9109
▁áu	-9110
tter	-9111
▁Cru	-9112
▁Rub	-9113
▁Clau	-9114
▁Libe	-9115
▁Tipos	-9116
▁golpe	-9117
▁moral	-9118
▁literal	-9119
▁observar	-9120
▁Executivo	-9121
▁Patrimônio	-9122
já	-9123
Man	-9124
ola	-9125
▁om	-9126
ance	-9127
peri	-9128
▁151	-9129
▁Cus	-9130
▁Diz	-9131
ônomo	-9132
▁Ober	-9133
▁gelo	-9134
▁usou	-9135
▁piano	-9136
▁turno	-9137
▁baseia	-9138
▁curios	-9139
▁seguiu	-9140
undância	-9141
▁Company	-9142
▁Floresta	-9143
▁hipótese	-9144
▁Barcelona	-9145
▁Fortaleza	-9146
▁masculino	-9147
▁permanente	-9148
▁Normalmente	-9149
gma	-9150
hen	-9151
ock	-9152
emos	-9153
teni	-9154
tias	-9155
índr	-9156
▁Wol	-9157
▁asi	-9158
anato	-9159
tuado	-9160
zzano	-9161
árido	-9162
enciou	-9163
▁Corin	-9164
▁Tendo	-9165
▁claro	-9166
▁jogar	-9167
▁Ciência	-9168
▁Gabriel	-9169
▁governos	-9170
▁culinária	-9171
▁equilíbrio	-9172
yr	-9173
▁pô	-9174
▁Gri	-9175
▁ara	-9176
órida	-9177
óveis	-9178
▁Fica	-9179
▁Conte	-9180
▁Histo	-9181
▁mando	-9182
▁Formos	-9183
▁aquela	-9184
▁vieram	-9185
▁Andrade	-9186
▁Guadala	-9187
▁perigos	-9188
▁incluída	-9189
▁perdendo	-9190
▁descrever	-9191
▁organizado	-9192
▁revolucion	-9193
cr	-9194
▁óp	-9195
pina	-9196
roup	-9197
tosa	-9198
çaram	-9199
▁1968	-9200
▁Dens	-9201
▁Mala	-9202
▁ofer	-9203
▁1930,	-9204
▁Linux	-9205
▁Princ	-9206
▁mobil	-9207
▁pudes	-9208
cionada	-9209
▁elenco	-9210
▁mecanismo	-9211
__	-9212
sí	-9213
ador	-9214
teza	-9215
▁Aris	-9216
tíveis	-9217
▁Cated	-9218
▁ampli	-9219
▁folha	-9220
▁Teresa	-9221
▁Marquês	-9222
▁declarou	-9223
▁topónimo	-9224
▁monumento	-9225
▁subordinado	-9226
MI	-9227
gene	-9228
hire	-9229
vedo	-9230
▁21,	-9231
▁Ton	-9232
genda	-9233
press	-9234
reais	-9235
ílios	-9236
▁1970.	-9237
▁lojas	-9238
▁tribo	-9239
cidades	-9240
▁aviões	-9241
▁define	-9242
▁Rodrigo	-9243
▁doutorado	-9244
▁intitulado	-9245
_3	-9246
arca	-9247
▁Bil	-9248
▁DNA	-9249
▁Las	-9250
▁dão	-9251
▁uns	-9252
torno	-9253
▁Adol	-9254
▁Cama	-9255
▁conv	-9256
▁2002.	-9257
▁Sobre	-9258
▁fator	-9259
▁urban	-9260
▁Araújo	-9261
▁System	-9262
▁capazes	-9263
▁Barcelos	-9264
▁familiar	-9265
▁químicos	-9266
▁Magalhães	-9267
▁Principais	-9268
jó	-9269
2),	-9270
2).	-9271
thal	-9272
vana	-9273
▁Colo	-9274
▁Gior	-9275
órrego	-9276
▁Barão	-9277
▁braço	-9278
▁juris	-9279
▁santo	-9280
▁Friuli	-9281
▁médica	-9282
tebrados	-9283
▁apelido	-9284
▁guerras	-9285
▁estreito	-9286
▁integrada	-9287
▁possuindo	-9288
▁descobertas	-9289
▁diversidade	-9290
blo	-9291
sch	-9292
▁(3	-9293
▁Yo	-9294
igan	-9295
▁Tru	-9296
dista	-9297
▁1984	-9298
▁Arro	-9299
▁1953,	-9300
▁arbus	-9301
▁espon	-9302
▁profe	-9303
▁ascend	-9304
▁compõem	-9305
▁galáxia	-9306
▁insetos	-9307
▁vegetal	-9308
▁viagens	-9309
▁alcançar	-9310
▁reproduz	-9311
▁caracteres	-9312
eja	-9313
jou	-9314
yan	-9315
ecem	-9316
tain	-9317
organ	-9318
▁Alva	-9319
▁brin	-9320
▁Negro	-9321
▁Pales	-9322
▁atuar	-9323
▁sabor	-9324
▁Cristó	-9325
▁Recife	-9326
▁frutas	-9327
▁polícia	-9328
▁Portanto	-9329
▁eclesiás	-9330
▁residentes	-9331
▁significativa	-9332
»,	-9333
eda	-9334
jor	-9335
sel	-9336
tân	-9337
bada	-9338
▁1.0	-9339
▁Jim	-9340
vindo	-9341
▁Pens	-9342
icismo	-9343
érgamo	-9344
▁1975,	-9345
▁discu	-9346
▁Toledo	-9347
▁razões	-9348
uminense	-9349
▁Estudou	-9350
▁confron	-9351
freguesia	-9352
▁cinemato	-9353
▁individual	-9354
▁matemático	-9355
DDD	-9356
▁úm	-9357
bito	-9358
▁Cis	-9359
▁Tess	-9360
▁erro	-9361
cionou	-9362
diosos	-9363
▁2007.	-9364
▁coisa	-9365
▁polon	-9366
▁Trento	-9367
▁fêmeas	-9368
▁possam	-9369
▁Turquia	-9370
▁conhece	-9371
▁síntese	-9372
▁concorre	-9373
▁padroeiro	-9374
▁telefônico	-9375
▁coordenadas	-9376
▁influências	-9377
vy	-9378
ww	-9379
ác	-9380
aux	-9381
ory	-9382
elle	-9383
▁Net	-9384
▁cil	-9385
▁King	-9386
▁Monu	-9387
▁agri	-9388
▁inde	-9389
▁patr	-9390
trução	-9391
▁1943,	-9392
▁Smith	-9393
grafias	-9394
▁global	-9395
▁vendas	-9396
▁vizinh	-9397
▁perspec	-9398
▁Interior	-9399
▁ocorrido	-9400
▁recomenda	-9401
▁Mediterrâneo	-9402
CE	-9403
bí	-9404
▁Lú	-9405
▁Mü	-9406
▁gl	-9407
ESCO	-9408
aras	-9409
ceas	-9410
vena	-9411
▁ber	-9412
▁naz	-9413
ranos	-9414
▁fres	-9415
▁zero	-9416
▁pouca	-9417
▁preço	-9418
elheiro	-9419
▁Iguaçu	-9420
▁Mestre	-9421
▁favore	-9422
▁tronco	-9423
▁dinossa	-9424
▁Illinois	-9425
▁propósito	-9426
▁tropicais	-9427
▁interesses	-9428
▁Guadalajara	-9429
▁0.	-9430
▁Cí	-9431
elli	-9432
fogo	-9433
undas	-9434
▁Moder	-9435
▁Royal	-9436
▁centí	-9437
▁duque	-9438
▁Apenas	-9439
▁Capital	-9440
eiramente	-9441
▁doutrina	-9442
▁Densidade	-9443
▁conseguir	-9444
▁computação	-9445
▁integração	-9446
▁alternativa	-9447
-18	-9448
are	-9449
ato	-9450
sta	-9451
▁68	-9452
uras	-9453
viden	-9454
▁Ramos	-9455
▁patri	-9456
▁reper	-9457
táculos	-9458
▁compro	-9459
▁iguais	-9460
formação	-9461
▁Canaves	-9462
▁bonitas	-9463
▁cosmona	-9464
▁páginas	-9465
▁aparelho	-9466
▁produzem	-9467
▁pertencer	-9468
▁orientação	-9469
▁representante	-9470
Eu	-9471
▁IP	-9472
erno	-9473
▁1967	-9474
▁ater	-9475
▁mino	-9476
▁sair	-9477
▁Assis	-9478
▁casca	-9479
▁lazer	-9480
▁teste	-9481
química	-9482
▁placas	-9483
▁Alagoas	-9484
▁digitais	-9485
▁expressa	-9486
▁república	-9487
▁entrevista	-9488
dea	-9489
iri	-9490
eixo	-9491
rava	-9492
▁Tol	-9493
▁cog	-9494
conde	-9495
lador	-9496
ranja	-9497
▁Frei	-9498
▁Park	-9499
luindo	-9500
ungria	-9501
▁1984,	-9502
▁1997.	-9503
▁Fundo	-9504
▁Malta	-9505
▁Código	-9506
▁Zurique	-9507
▁daquela	-9508
▁gráfico	-9509
▁Pesquisa	-9510
▁fazendas	-9511
▁publicações	-9512
▁substituída	-9513
▁transformou	-9514
00.	-9515
eto	-9516
isp	-9517
▁FC	-9518
▁bur	-9519
rânio	-9520
rizada	-9521
▁depós	-9522
▁Aguiar	-9523
▁filosó	-9524
▁gravou	-9525
▁Borgonha	-9526
▁artística	-9527
▁bu	-9528
ines	-9529
nche	-9530
▁reel	-9531
▁sequ	-9532
comuna	-9533
▁Grand	-9534
▁encos	-9535
▁sacri	-9536
▁sente	-9537
▁Comitê	-9538
▁Walter	-9539
▁galego	-9540
▁típico	-9541
▁encarre	-9542
cidentais	-9543
▁convento	-9544
▁poderiam	-9545
▁sucedido	-9546
▁Filosofia	-9547
▁tendência	-9548
▁envolvendo	-9549
IDH	-9550
gru	-9551
nch	-9552
unt	-9553
cien	-9554
dano	-9555
▁ile	-9556
chada	-9557
podes	-9558
tenta	-9559
▁Mare	-9560
▁Trin	-9561
▁tese	-9562
▁1945,	-9563
▁Loren	-9564
▁abriu	-9565
▁bordo	-9566
▁2021).	-9567
▁Ensino	-9568
▁Nasceu	-9569
▁marcas	-9570
▁algodão	-9571
▁consist	-9572
▁criadas	-9573
▁círculo	-9574
▁havendo	-9575
▁ingleses	-9576
▁topônimo	-9577
▁específica	-9578
▁inspiração	-9579
▁organizada	-9580
nie	-9581
ânc	-9582
úva	-9583
▁Alc	-9584
▁Amé	-9585
▁Cân	-9586
▁bin	-9587
▁1963	-9588
▁abol	-9589
▁1980.	-9590
▁Chico	-9591
▁Paula	-9592
▁Souto	-9593
▁colec	-9594
▁crime	-9595
▁campan	-9596
▁titular	-9597
▁pinturas	-9598
▁determinar	-9599
▁eletrônico	-9600
▁observação	-9601
▁combustível	-9602
▁construídos	-9603
▁industriais	-9604
▁intensidade	-9605
▁laboratório	-9606
▁identificação	-9607
Ex	-9608
▁63	-9609
core	-9610
▁Mec	-9611
▁Mir	-9612
giram	-9613
lites	-9614
raial	-9615
▁hard	-9616
▁velha	-9617
▁agente	-9618
▁intera	-9619
▁definir	-9620
▁proemin	-9621
▁guitarra	-9622
▁abundante	-9623
▁gravadora	-9624
▁funcionários	-9625
▁popularidade	-9626
NO	-9627
nau	-9628
▁114	-9629
▁irá	-9630
hista	-9631
▁pain	-9632
tizada	-9633
▁Félix	-9634
▁curva	-9635
▁danos	-9636
▁polin	-9637
▁Caldas	-9638
▁vendeu	-9639
▁Carioca	-9640
▁assumir	-9641
▁roteiro	-9642
▁iniciado	-9643
▁mensagem	-9644
americanos	-9645
▁frequente	-9646
▁hemisfério	-9647
▁Originalmente	-9648
Ja	-9649
SE	-9650
mm	-9651
maz	-9652
sin	-9653
urt	-9654
kota	-9655
tata	-9656
ísio	-9657
▁174	-9658
▁fes	-9659
órias	-9660
▁Alco	-9661
▁Schw	-9662
▁amen	-9663
▁sons	-9664
▁1976,	-9665
▁Gusta	-9666
▁Timor	-9667
▁civis	-9668
▁fauna	-9669
▁Madrid	-9670
▁Marcel	-9671
▁Exemplo	-9672
▁causada	-9673
▁conexão	-9674
▁Concelho	-9675
▁literário	-9676
▁estimativa	-9677
▁específicas	-9678
▁localizadas	-9679
Sta	-9680
igna	-9681
zaro	-9682
▁dono	-9683
TELESP	-9684
ástica	-9685
▁Music	-9686
▁feira	-9687
▁revel	-9688
▁Nelson	-9689
▁confia	-9690
▁vencer	-9691
▁ventos	-9692
▁Lugares	-9693
▁Projeto	-9694
▁barragem	-9695
▁herdeiro	-9696
▁limitada	-9697
▁republic	-9698
▁estabelecida	-9699
dom	-9700
ipa	-9701
rick	-9702
▁Dos	-9703
▁Gor	-9704
▁Tia	-9705
▁pão	-9706
▁Bela	-9707
▁1967,	-9708
▁Casou	-9709
▁Cerca	-9710
▁Escri	-9711
▁Pouco	-9712
▁flora	-9713
▁Litera	-9714
▁Tornou	-9715
▁cavalo	-9716
▁contos	-9717
orrência	-9718
▁Imediata	-9719
▁biologia	-9720
▁conhecer	-9721
▁composições	-9722
▁fundamentais	-9723
▁protagonista	-9724
▁Independência	-9725
▁processamento	-9726
VA	-9727
tun	-9728
▁DC	-9729
more	-9730
▁119	-9731
cílio	-9732
etano	-9733
lasse	-9734
▁foco	-9735
Brasil	-9736
▁Prote	-9737
▁alian	-9738
▁neuro	-9739
▁Albert	-9740
▁mínima	-9741
▁Diocese	-9742
▁chamava	-9743
▁judaica	-9744
▁Catedral	-9745
▁Curitiba	-9746
▁intenção	-9747
▁colocação	-9748
▁revolução	-9749
▁descendente	-9750
▁precisamente	-9751
SC	-9752
bac	-9753
tróp	-9754
ouros	-9755
▁Maia	-9756
▁Mana	-9757
▁Maur	-9758
tentes	-9759
▁1940,	-9760
▁1959,	-9761
▁Diogo	-9762
▁turnê	-9763
▁Águas	-9764
ficados	-9765
▁Burgos	-9766
▁motores	-9767
▁recorde	-9768
▁urbanos	-9769
▁disputar	-9770
▁servidor	-9771
▁vitórias	-9772
▁artificial	-9773
▁turísticos	-9774
▁variedades	-9775
gá	-9776
tif	-9777
▁78	-9778
hima	-9779
▁Albu	-9780
▁idên	-9781
▁Espan	-9782
▁casar	-9783
▁detec	-9784
▁encer	-9785
▁ritmo	-9786
▁espira	-9787
▁estran	-9788
▁longos	-9789
gislação	-9790
▁dedicou	-9791
▁exerceu	-9792
▁Figueira	-9793
▁sucessos	-9794
▁ambientes	-9795
▁estaduais	-9796
▁violência	-9797
▁escritores	-9798
▁substituir	-9799
▁telenovela	-9800
▁específicos	-9801
pis	-9802
▁(17	-9803
▁Neu	-9804
mengo	-9805
têvão	-9806
▁bola	-9807
▁Cuneo	-9808
hamento	-9809
▁Disney	-9810
▁cordas	-9811
▁calcula	-9812
▁palácio	-9813
▁Esperança	-9814
▁padroeira	-9815
▁Participou	-9816
BT	-9817
Mon	-9818
cht	-9819
▁Cô	-9820
▁Of	-9821
esto	-9822
fael	-9823
▁DDD	-9824
onald	-9825
right	-9826
▁tela	-9827
▁cunha	-9828
▁fatos	-9829
▁sinte	-9830
▁Leopol	-9831
▁Quatro	-9832
▁UNESCO	-9833
▁castan	-9834
▁normas	-9835
▁Bérgamo	-9836
▁aprovei	-9837
▁consecu	-9838
ficientes	-9839
▁críticos	-9840
▁recenseada	-9841
▁equipamento	-9842
▁permanecendo	-9843
PD	-9844
To	-9845
Per	-9846
jes	-9847
mpa	-9848
mond	-9849
rine	-9850
▁13.	-9851
▁NGC	-9852
▁gor	-9853
magem	-9854
quita	-9855
▁aero	-9856
▁trás	-9857
▁1965,	-9858
▁Matos	-9859
▁etapa	-9860
▁gratu	-9861
▁podia	-9862
▁resga	-9863
índrome	-9864
▁móveis	-9865
▁nobres	-9866
▁partil	-9867
▁Estêvão	-9868
▁célebre	-9869
▁vizinha	-9870
▁distante	-9871
▁estimula	-9872
▁notícias	-9873
▁Cemitério	-9874
▁contribuiu	-9875
urs	-9876
wis	-9877
ânda	-9878
▁110	-9879
▁23,	-9880
▁Das	-9881
▁Mid	-9882
rindo	-9883
urado	-9884
▁Pene	-9885
▁onze	-9886
▁1954.	-9887
▁1999.	-9888
▁rigor	-9889
enciais	-9890
▁perder	-9891
▁mostram	-9892
▁Comércio	-9893
▁circular	-9894
▁concurso	-9895
▁precisão	-9896
▁semelhança	-9897
▁consciência	-9898
▁localizados	-9899
▁eventualmente	-9900
CN	-9901
En	-9902
Ger	-9903
heu	-9904
ota	-9905
rejo	-9906
▁Gir	-9907
▁Vel	-9908
▁jes	-9909
giano	-9910
▁Gris	-9911
▁Repu	-9912
▁iria	-9913
nessee	-9914
▁Pavia	-9915
▁satis	-9916
omencla	-9917
▁Aragua	-9918
▁Dentro	-9919
▁bronze	-9920
▁cumpri	-9921
▁doação	-9922
▁escudo	-9923
▁módulo	-9924
Bretanha	-9925
▁Bolívia	-9926
▁enviado	-9927
▁incluía	-9928
▁teorias	-9929
▁Acredita	-9930
▁extração	-9931
▁reformas	-9932
▁romances	-9933
▁inspirado	-9934
▁componente	-9935
▁vizinhança	-9936
▁identificar	-9937
▁definitivamente	-9938
ere	-9939
irm	-9940
onto	-9941
▁102	-9942
▁22,	-9943
essas	-9944
▁1969	-9945
▁Mass	-9946
▁Meio	-9947
▁Pale	-9948
▁codi	-9949
▁jard	-9950
▁1978,	-9951
▁1981,	-9952
▁vasos	-9953
▁Passou	-9954
▁contou	-9955
▁sítios	-9956
▁Rosário	-9957
▁adotada	-9958
▁interface	-9959
▁destacando	-9960
▁preservação	-9961
▁significando	-9962
bana	-9963
idar	-9964
uovo	-9965
vard	-9966
íodo	-9967
▁Hit	-9968
▁Vou	-9969
▁ope	-9970
dromo	-9971
istir	-9972
tocol	-9973
▁Alfa	-9974
▁Bill	-9975
▁Love	-9976
▁acen	-9977
izador	-9978
landesa	-9979
▁esforço	-9980
▁sucessão	-9981
▁correntes	-9982
▁familiares	-9983
▁intervenção	-9984
hy	-9985
Cor	-9986
ani	-9987
nen	-9988
olas	-9989
▁Luc	-9990
▁1000	-9991
▁1973	-9992
▁Eslo	-9993
▁acol	-9994
▁1995.	-9995
▁Berna	-9996
▁Congo	-9997
▁junta	-9998
▁russa	-9999
Institu	-10000
▁Antigo	-10001
▁conter	-10002
▁defens	-10003
▁instal	-10004
▁levado	-10005
▁portas	-10006
▁procla	-10007
▁Hungria	-10008
▁assinou	-10009
▁causando	-10010
▁esforços	-10011
▁numerosos	-10012
▁pioneiros	-10013
▁abundância	-10014
▁humanidade	-10015
▁tipicamente	-10016
Jo	-10017
MO	-10018
mun	-10019
tho	-10020
▁tó	-10021
ises	-10022
ivin	-10023
omba	-10024
yama	-10025
▁164	-10026
▁Dam	-10027
▁Fur	-10028
celos	-10029
▁afro	-10030
▁lhes	-10031
portos	-10032
táculo	-10033
▁Nunes	-10034
▁pista	-10035
▁Difere	-10036
▁atinge	-10037
▁cargas	-10038
▁épocas	-10039
▁reações	-10040
▁Italiano	-10041
▁Cambridge	-10042
▁gravações	-10043
/8	-10044
pf	-10045
aré	-10046
ety	-10047
▁Zé	-10048
anal	-10049
gipe	-10050
lito	-10051
▁Ans	-10052
▁Bay	-10053
▁Nam	-10054
▁aco	-10055
giado	-10056
ilton	-10057
▁flex	-10058
▁soci	-10059
▁tran	-10060
entada	-10061
▁Black	-10062
▁Couto	-10063
▁batal	-10064
▁derru	-10065
▁rebel	-10066
▁renas	-10067
▁Chaves	-10068
▁Contro	-10069
▁micros	-10070
quisição	-10071
▁Faleceu	-10072
▁estilos	-10073
▁cineasta	-10074
▁interrom	-10075
▁testemun	-10076
▁brilhante	-10077
▁semiárido	-10078
▁actividades	-10079
▁pesquisadores	-10080
AF	-10081
▁69	-10082
capa	-10083
idea	-10084
mera	-10085
ábio	-10086
▁anf	-10087
▁los	-10088
▁ple	-10089
dinho	-10090
lando	-10091
▁1966	-10092
▁Depu	-10093
▁baía	-10094
▁dona	-10095
▁oral	-10096
▁selo	-10097
cações	-10098
ápoles	-10099
ógicos	-10100
▁2011.	-10101
▁vilas	-10102
▁Center	-10103
▁Ocupou	-10104
▁austra	-10105
▁culmin	-10106
▁negros	-10107
▁reivin	-10108
▁Coronel	-10109
▁Estendeu	-10110
▁espaciais	-10111
▁Agricultura	-10112
▁construídas	-10113
▁trabalhando	-10114
53"	-10115
ech	-10116
dino	-10117
idra	-10118
ervas	-10119
polis	-10120
▁1962	-10121
▁Zeus	-10122
▁vita	-10123
élicas	-10124
▁1977,	-10125
▁Catan	-10126
▁catal	-10127
▁jesuí	-10128
▁vasta	-10129
▁Wilson	-10130
▁inscri	-10131
▁Ligúria	-10132
▁Marcelo	-10133
▁cérebro	-10134
▁American	-10135
▁planície	-10136
▁Venezuela	-10137
▁alteração	-10138
▁baterista	-10139
▁produzidas	-10140
▁interpretou	-10141
▁agropecuária	-10142
▁85	-10143
▁ib	-10144
▁Bet	-10145
▁Gou	-10146
▁Tir	-10147
▁leg	-10148
anova	-10149
drich	-10150
▁1961	-10151
▁Magn	-10152
▁Quad	-10153
▁pico	-10154
▁difun	-10155
▁migra	-10156
▁nosso	-10157
▁Alfred	-10158
▁tomada	-10159
▁ângulo	-10160
▁Alfredo	-10161
▁justiça	-10162
▁vendido	-10163
▁primária	-10164
▁proteger	-10165
▁capítulos	-10166
▁variáveis	-10167
guá	-10168
sou	-10169
beth	-10170
emia	-10171
itan	-10172
mico	-10173
▁152	-10174
▁25,	-10175
▁Web	-10176
donda	-10177
funda	-10178
▁Equa	-10179
▁Gram	-10180
▁coin	-10181
▁tera	-10182
▁metro	-10183
▁sódio	-10184
luência	-10185
▁longas	-10186
▁machos	-10187
▁torres	-10188
ridional	-10189
▁Munique	-10190
▁cliente	-10191
▁garantir	-10192
▁paralelo	-10193
▁divididos	-10194
▁monumentos	-10195
Sal	-10196
ror	-10197
▁61	-10198
troc	-10199
▁800	-10200
▁Gem	-10201
rbara	-10202
▁Baía	-10203
▁clim	-10204
imento	-10205
▁Belas	-10206
▁Casti	-10207
▁Napole	-10208
▁assunto	-10209
▁exibido	-10210
▁projecto	-10211
So	-10212
▁72	-10213
▁hí	-10214
/200	-10215
mail	-10216
▁170	-10217
▁Num	-10218
feras	-10219
gório	-10220
▁habi	-10221
▁Monta	-10222
▁vidro	-10223
▁Macedo	-10224
▁Azevedo	-10225
▁Infante	-10226
▁ligadas	-10227
▁tivesse	-10228
▁Imperial	-10229
▁Relações	-10230
▁progresso	-10231
▁contratado	-10232
ultaneamente	-10233
▁centímetros	-10234
▁considerável	-10235
ll	-10236
enz	-10237
hab	-10238
ude	-10239
úrb	-10240
▁73	-10241
bano	-10242
edro	-10243
miss	-10244
vira	-10245
▁(0,	-10246
▁aut	-10247
dulas	-10248
▁Caso	-10249
▁mapa	-10250
▁namo	-10251
▁1983,	-10252
▁2008.	-10253
▁Livre	-10254
▁cenas	-10255
▁Panamá	-10256
▁Rafael	-10257
▁desper	-10258
▁imposs	-10259
▁tentar	-10260
▁conclui	-10261
▁mensagens	-10262
▁sobrevive	-10263
▁consideram	-10264
▁cristianismo	-10265
CH	-10266
OL	-10267
▁96	-10268
deos	-10269
teri	-10270
wald	-10271
▁Ado	-10272
▁All	-10273
▁Day	-10274
▁fãs	-10275
▁log	-10276
diais	-10277
▁1945	-10278
▁oper	-10279
▁pena	-10280
duação	-10281
▁1958,	-10282
▁1973,	-10283
▁subma	-10284
▁Defesa	-10285
▁analis	-10286
▁massas	-10287
▁álcool	-10288
▁Giorgio	-10289
▁colocar	-10290
▁cálculo	-10291
▁famosas	-10292
▁povoada	-10293
pectativa	-10294
▁Produção	-10295
▁aplicado	-10296
▁iniciada	-10297
▁radiação	-10298
▁Convenção	-10299
▁introduzido	-10300
▁professores	-10301
▁recuperação	-10302
▁tecnologias	-10303
PI	-10304
dé	-10305
▁fi	-10306
bele	-10307
▁Amo	-10308
▁Rui	-10309
▁dei	-10310
▁már	-10311
manes	-10312
rilha	-10313
▁1971	-10314
▁adja	-10315
▁anel	-10316
/2025,	-10317
▁Assun	-10318
▁Borgo	-10319
▁Palma	-10320
▁mente	-10321
çamento	-10322
▁Veneza	-10323
▁cadeira	-10324
▁Virgínia	-10325
▁aeronave	-10326
▁dirigida	-10327
▁modernas	-10328
▁Comunista	-10329
▁dominante	-10330
▁implantou	-10331
▁molecular	-10332
▁separadas	-10333
▁Literatura	-10334
▁caracterizada	-10335
low	-10336
óto	-10337
rone	-10338
tuna	-10339
téis	-10340
▁Ano	-10341
▁Lux	-10342
dioca	-10343
psula	-10344
quesa	-10345
vente	-10346
▁abor	-10347
▁bara	-10348
▁moto	-10349
▁olímp	-10350
tâncias	-10351
▁Sancho	-10352
▁fantas	-10353
▁Nicolau	-10354
▁recurso	-10355
▁contínua	-10356
▁inserido	-10357
▁protocolo	-10358
▁Figueiredo	-10359
▁Secretário	-10360
▁estudiosos	-10361
▁modalidade	-10362
▁secundário	-10363
▁Transportes	-10364
▁armazenamento	-10365
▁personalidade	-10366
500	-10367
oba	-10368
▁24,	-10369
▁nór	-10370
trans	-10371
▁Amor	-10372
▁Even	-10373
▁olho	-10374
▁Disco	-10375
▁caixa	-10376
▁falar	-10377
▁Comple	-10378
▁fibras	-10379
▁relatos	-10380
▁Gregório	-10381
▁contando	-10382
▁pessoais	-10383
▁Atlântica	-10384
▁agregadas	-10385
▁derivados	-10386
ès	-10387
dua	-10388
sil	-10389
▁cú	-10390
bral	-10391
ezia	-10392
gula	-10393
reis	-10394
▁250	-10395
▁Bem	-10396
▁Kir	-10397
rinas	-10398
▁Apol	-10399
▁Cova	-10400
▁Fora	-10401
▁Raim	-10402
▁haja	-10403
açúcar	-10404
formas	-10405
ógrafo	-10406
▁aplic	-10407
▁assin	-10408
▁gerar	-10409
▁nossa	-10410
▁plena	-10411
▁sueco	-10412
▁trigo	-10413
camento	-10414
gueiras	-10415
▁biblio	-10416
▁costas	-10417
▁linear	-10418
▁indicam	-10419
▁patente	-10420
▁revolta	-10421
▁Amazônia	-10422
▁declínio	-10423
▁ocupando	-10424
▁receitas	-10425
▁relativa	-10426
▁Americana	-10427
▁distinção	-10428
▁contribuições	-10429
Em	-10430
Col	-10431
pura	-10432
town	-10433
▁25-	-10434
▁Eul	-10435
▁gaú	-10436
dices	-10437
▁Biel	-10438
▁Paço	-10439
▁deba	-10440
▁glân	-10441
▁neve	-10442
▁útil	-10443
▁Johns	-10444
▁Navar	-10445
▁artil	-10446
▁prato	-10447
▁times	-10448
▁Júnior	-10449
▁ensina	-10450
▁mental	-10451
▁podiam	-10452
▁vértic	-10453
▁Através	-10454
▁Bárbara	-10455
▁dialeto	-10456
▁origina	-10457
▁ingressou	-10458
▁eletrônicos	-10459
Te	-10460
ak	-10461
ii	-10462
▁Â	-10463
ern	-10464
pha	-10465
lash	-10466
▁125	-10467
▁Aer	-10468
▁Rod	-10469
▁Sir	-10470
▁Tam	-10471
izade	-10472
orden	-10473
▁inib	-10474
brasil	-10475
▁Dinis	-10476
▁Indús	-10477
▁Terri	-10478
▁fases	-10479
▁medir	-10480
▁áudio	-10481
piranga	-10482
▁Glória	-10483
▁Pessoa	-10484
▁Correia	-10485
▁abrevia	-10486
▁comédia	-10487
▁reunião	-10488
▁esportes	-10489
▁graduação	-10490
▁Industrial	-10491
▁assistente	-10492
▁propriamente	-10493
▁desenvolvidos	-10494
pso	-10495
eite	-10496
▁Mau	-10497
▁diá	-10498
▁tio	-10499
ertos	-10500
inter	-10501
tânia	-10502
▁Brés	-10503
▁Nome	-10504
▁fron	-10505
▁gram	-10506
▁mens	-10507
ímetro	-10508
▁Neves	-10509
▁cance	-10510
▁serão	-10511
istemas	-10512
▁Xavier	-10513
▁faziam	-10514
choeiras	-10515
▁Flórida	-10516
▁Society	-10517
▁fazende	-10518
▁monarca	-10519
▁provável	-10520
rianópolis	-10521
▁Margarida	-10522
▁considerar	-10523
▁inauguração	-10524
▁contribuição	-10525
▁primeiramente	-10526
▁relacionamento	-10527
AM	-10528
Au	-10529
ól	-10530
obo	-10531
▁UE	-10532
bria	-10533
dres	-10534
vite	-10535
▁Lea	-10536
vares	-10537
▁Bota	-10538
▁Spor	-10539
contin	-10540
teiras	-10541
▁invés	-10542
▁úmido	-10543
dadores	-10544
icultura	-10545
▁Cláudio	-10546
▁Nápoles	-10547
▁afirmou	-10548
▁colunas	-10549
▁diocese	-10550
▁mostrou	-10551
▁rotação	-10552
▁terminal	-10553
▁algoritmo	-10554
▁excelente	-10555
▁realmente	-10556
▁assassinato	-10557
▁estabeleceram	-10558
fio	-10559
dore	-10560
▁Red	-10561
Portu	-10562
gicos	-10563
tador	-10564
▁1972	-10565
▁Stra	-10566
▁gera	-10567
▁neer	-10568
▁suic	-10569
glione	-10570
vantes	-10571
▁Mario	-10572
▁beira	-10573
▁subes	-10574
▁teriam	-10575
▁reposta	-10576
▁Dinastia	-10577
▁paroquial	-10578
▁caracteriz	-10579
▁desanexados	-10580
▁caracterizado	-10581
non	-10582
vaí	-10583
grou	-10584
▁Gia	-10585
erano	-10586
mante	-10587
▁Neto	-10588
▁manc	-10589
▁ósse	-10590
▁1968,	-10591
▁1993.	-10592
▁Bacia	-10593
▁Sport	-10594
▁aulas	-10595
▁justi	-10596
▁naval	-10597
▁prazo	-10598
portado	-10599
▁Borges	-10600
▁graves	-10601
timentos	-10602
▁subsequ	-10603
▁assinado	-10604
▁Finlândia	-10605
▁cemitério	-10606
▁clássicos	-10607
▁essencial	-10608
▁receberam	-10609
dw	-10610
▁{	-10611
gne	-10612
sul	-10613
▁Fá	-10614
▁Hy	-10615
rand	-10616
▁15.	-10617
▁Ará	-10618
▁Tes	-10619
▁Vár	-10620
▁vib	-10621
gidas	-10622
quara	-10623
tecas	-10624
▁Doce	-10625
▁Karl	-10626
ássico	-10627
▁1960.	-10628
▁Brown	-10629
▁amplo	-10630
▁proba	-10631
▁Romana	-10632
▁atores	-10633
▁esfera	-10634
▁queijo	-10635
itamente	-10636
▁Freitas	-10637
▁agricul	-10638
▁quadros	-10639
▁vizinho	-10640
inatórias	-10641
▁Columbia	-10642
▁detalhes	-10643
▁escritas	-10644
▁vertical	-10645
▁Cristóvão	-10646
▁aprovação	-10647
▁Tecnologia	-10648
▁britânicos	-10649
▁arqueológicos	-10650
CR	-10651
ata	-10652
zim	-10653
▁59	-10654
▁79	-10655
▁ia	-10656
osso	-10657
▁140	-10658
érios	-10659
▁mara	-10660
▁orto	-10661
▁solic	-10662
▁Michel	-10663
▁Samuel	-10664
▁bombar	-10665
▁núcleos	-10666
▁fornecer	-10667
▁mandioca	-10668
▁músculos	-10669
▁Interesse	-10670
▁colocados	-10671
▁juventude	-10672
▁produções	-10673
▁institucional	-10674
vém	-10675
▁76	-10676
▁Zo	-10677
▁1890	-10678
▁Jeff	-10679
▁Vice	-10680
▁bela	-10681
▁bits	-10682
▁esgo	-10683
▁citado	-10684
▁fiscal	-10685
▁lógica	-10686
▁mostrar	-10687
▁recorre	-10688
▁televis	-10689
▁animação	-10690
▁cerâmica	-10691
▁costumes	-10692
▁repostas	-10693
▁distintos	-10694
▁económica	-10695
▁traduzido	-10696
omenclatura	-10697
▁evidências	-10698
▁fotografia	-10699
▁psicologia	-10700
▁oportunidade	-10701
gl	-10702
lí	-10703
cês	-10704
dine	-10705
enso	-10706
▁130	-10707
▁14.	-10708
▁155	-10709
▁Fam	-10710
▁May	-10711
parte	-10712
penha	-10713
▁1965	-10714
▁adia	-10715
▁1992.	-10716
▁Deste	-10717
▁Jacob	-10718
▁diver	-10719
▁suíço	-10720
▁Philip	-10721
▁adotou	-10722
▁contar	-10723
▁pergun	-10724
itologia	-10725
▁agência	-10726
▁bateria	-10727
▁retorna	-10728
▁caminhos	-10729
▁primário	-10730
▁Friedrich	-10731
▁pagamento	-10732
▁densamente	-10733
▁fertilidade	-10734
mul	-10735
▁(4	-10736
▁ov	-10737
▁Mez	-10738
▁Nar	-10739
▁sor	-10740
quila	-10741
▁atos	-10742
dimens	-10743
indade	-10744
▁assem	-10745
▁lenta	-10746
▁manus	-10747
▁pales	-10748
▁vivia	-10749
▁comida	-10750
▁jardim	-10751
▁tornam	-10752
formática	-10753
▁molécula	-10754
▁Localizada	-10755
▁implantação	-10756
▁constitucional	-10757
lid	-10758
uba	-10759
tuma	-10760
▁len	-10761
arque	-10762
ridae	-10763
▁Hugo	-10764
▁Util	-10765
▁adop	-10766
▁deso	-10767
andomb	-10768
queiro	-10769
ântico	-10770
▁2020.	-10771
▁Laran	-10772
▁clara	-10773
▁herói	-10774
▁samba	-10775
▁drogas	-10776
▁tarefa	-10777
▁árabes	-10778
▁Caetano	-10779
▁referem	-10780
▁Republic	-10781
▁atrações	-10782
▁ditadura	-10783
▁nomeados	-10784
▁soluções	-10785
▁Toponímia	-10786
▁campanhas	-10787
▁concedido	-10788
▁faculdade	-10789
ab	-10790
nea	-10791
teo	-10792
trí	-10793
▁82	-10794
0.000	-10795
▁moda	-10796
túrias	-10797
▁1998.	-10798
▁2009.	-10799
▁seção	-10800
ferrato	-10801
▁Subdiv	-10802
▁latina	-10803
▁Bréscia	-10804
▁empreen	-10805
▁ocupado	-10806
▁operado	-10807
▁financia	-10808
▁anunciado	-10809
▁atribuída	-10810
▁ferramenta	-10811
▁diagnóstico	-10812
▁aparentemente	-10813
AG	-10814
VC	-10815
ey	-10816
-11	-10817
usen	-10818
▁Dre	-10819
setts	-10820
▁Mend	-10821
▁Ohio	-10822
▁Vito	-10823
▁1972,	-10824
▁1991.	-10825
▁Jones	-10826
▁básica	-10827
▁básico	-10828
▁custos	-10829
▁desejo	-10830
▁lançar	-10831
▁combina	-10832
▁demanda	-10833
▁clientes	-10834
▁mediante	-10835
▁conclusão	-10836
▁preparação	-10837
EC	-10838
Min	-10839
gui	-10840
sio	-10841
poli	-10842
▁Duas	-10843
▁Queb	-10844
▁aper	-10845
▁valo	-10846
tentri	-10847
▁Human	-10848
▁excep	-10849
▁grãos	-10850
▁jogou	-10851
▁Pombal	-10852
▁viviam	-10853
▁Bretanha	-10854
▁químicas	-10855
▁arcebispo	-10856
▁concelhos	-10857
▁restaurantes	-10858
uf	-10859
.),	-10860
nis	-10861
peu	-10862
▁Op	-10863
ongo	-10864
seus	-10865
velo	-10866
▁cau	-10867
ancel	-10868
entre	-10869
ordem	-10870
quiri	-10871
▁Rond	-10872
creveu	-10873
▁Desco	-10874
▁Mauri	-10875
▁argen	-10876
▁fêmea	-10877
▁roupas	-10878
▁defender	-10879
▁paciente	-10880
▁planalto	-10881
▁separada	-10882
▁denominar	-10883
▁eleitoral	-10884
▁geografia	-10885
▁Representa	-10886
▁legislação	-10887
▁tentativas	-10888
▁classificadas	-10889
CD	-10890
/12	-10891
cci	-10892
ily	-10893
kan	-10894
key	-10895
chel	-10896
tine	-10897
tons	-10898
▁(16	-10899
▁Már	-10900
▁bic	-10901
ditos	-10902
gante	-10903
villa	-10904
▁cedo	-10905
▁punk	-10906
▁sess	-10907
▁voca	-10908
ódigos	-10909
▁Basto	-10910
▁Valde	-10911
▁vales	-10912
endendo	-10913
▁adicion	-10914
▁extensa	-10915
▁Especial	-10916
▁performa	-10917
▁estatística	-10918
▁extremidade	-10919
▁simultaneamente	-10920
nil	-10921
xia	-10922
▁hi	-10923
ieti	-10924
ioso	-10925
▁bro	-10926
ensis	-10927
etria	-10928
ierar	-10929
negro	-10930
▁endo	-10931
▁horm	-10932
▁Podem	-10933
talegre	-10934
▁dispõe	-10935
▁recebem	-10936
▁momentos	-10937
▁arredores	-10938
▁compostas	-10939
▁diminuição	-10940
▁resultante	-10941
▁treinamento	-10942
▁experimental	-10943
gie	-10944
org	-10945
cari	-10946
mago	-10947
▁217	-10948
▁1996.	-10949
▁Clara	-10950
▁Golfo	-10951
▁braços	-10952
▁pastor	-10953
▁reinos	-10954
▁ácidos	-10955
▁Botafogo	-10956
▁baseados	-10957
▁incêndio	-10958
▁Palmeiras	-10959
▁triângulo	-10960
▁exatamente	-10961
▁produzindo	-10962
▁trajetória	-10963
▁apresentada	-10964
▁dificuldade	-10965
:"	-10966
MG	-10967
▁by	-10968
coço	-10969
laia	-10970
▁173	-10971
▁Rou	-10972
▁Sto	-10973
▁Band	-10974
▁1920,	-10975
▁1989.	-10976
▁negra	-10977
▁senso	-10978
▁2010).	-10979
▁queria	-10980
chusetts	-10981
▁Holanda	-10982
▁nobreza	-10983
▁aplicada	-10984
▁cirurgia	-10985
▁pretende	-10986
▁retirada	-10987
▁abordagem	-10988
▁pacientes	-10989
▁produtora	-10990
▁Fluminense	-10991
▁originária	-10992
▁terrestres	-10993
▁provenientes	-10994
▁historicamente	-10995
Cal	-10996
hua	-10997
fice	-10998
peia	-10999
tman	-11000
▁Aga	-11001
▁Gib	-11002
túbal	-11003
▁Land	-11004
▁Tupi	-11005
▁imun	-11006
▁nela	-11007
▁Guana	-11008
▁Resta	-11009
▁barro	-11010
ificada	-11011
▁Teoria	-11012
▁single	-11013
▁únicos	-11014
▁dezenas	-11015
▁ranking	-11016
▁Frederico	-11017
▁Transporte	-11018
▁07	-11019
▁98	-11020
▁Jr	-11021
▁có	-11022
gram	-11023
tsch	-11024
tíss	-11025
viso	-11026
▁Ani	-11027
▁Ave	-11028
▁Hem	-11029
▁Cole	-11030
▁evol	-11031
▁pren	-11032
▁Volta	-11033
▁estri	-11034
▁hotel	-11035
ficiais	-11036
gulares	-11037
▁Vascon	-11038
▁Várzea	-11039
andomblé	-11040
▁Jacques	-11041
▁Setúbal	-11042
▁documen	-11043
▁opinião	-11044
▁visando	-11045
▁falecido	-11046
▁homônimo	-11047
▁europeias	-11048
▁interação	-11049
▁profissão	-11050
▁assinatura	-11051
▁ferroviária	-11052
▁participações	-11053
PP	-11054
▁Cy	-11055
▁Ré	-11056
▁165	-11057
micas	-11058
monte	-11059
rence	-11060
▁Hero	-11061
▁ques	-11062
óquias	-11063
▁Final	-11064
▁efica	-11065
▁frota	-11066
▁Terras	-11067
▁acervo	-11068
▁cantão	-11069
▁Álvaro	-11070
▁condena	-11071
▁preciso	-11072
▁destacar	-11073
▁gabinete	-11074
▁Henriques	-11075
▁soviético	-11076
▁Secretaria	-11077
▁estabelece	-11078
▁publicadas	-11079
▁tripulação	-11080
▁embarcações	-11081
▁experimentos	-11082
_4	-11083
▁74	-11084
▁êx	-11085
fego	-11086
itch	-11087
lava	-11088
▁166	-11089
▁Lib	-11090
▁fir	-11091
▁acor	-11092
▁gira	-11093
▁1954,	-11094
▁Campe	-11095
▁Junto	-11096
▁Usina	-11097
▁reque	-11098
▁Victor	-11099
▁elimin	-11100
▁preços	-11101
▁vulgar	-11102
▁Liberal	-11103
▁degrada	-11104
▁estável	-11105
▁médicos	-11106
▁senador	-11107
▁vincula	-11108
▁dramatur	-11109
▁orgânica	-11110
▁ultrapass	-11111
▁transferida	-11112
▁necessidades	-11113
ret	-11114
aros	-11115
fone	-11116
▁Oce	-11117
▁Sum	-11118
▁Tig	-11119
Saint	-11120
▁geom	-11121
▁neop	-11122
▁soja	-11123
óticos	-11124
▁grama	-11125
▁largo	-11126
quistas	-11127
▁Martino	-11128
▁express	-11129
▁colabora	-11130
▁elétrico	-11131
▁formaram	-11132
▁parentes	-11133
▁separado	-11134
▁primitiva	-11135
▁promovido	-11136
▁treinador	-11137
▁Legislativo	-11138
▁científicos	-11139
▁mesorregião	-11140
▁manifestações	-11141
ví	-11142
bou	-11143
ear	-11144
▁77	-11145
tilo	-11146
tini	-11147
▁obe	-11148
▁sai	-11149
ixada	-11150
áutica	-11151
▁North	-11152
▁sigla	-11153
▁radica	-11154
▁Francês	-11155
▁Grandes	-11156
▁físicos	-11157
▁intensa	-11158
▁medalha	-11159
▁Flamengo	-11160
▁costumam	-11161
▁esquerdo	-11162
▁variante	-11163
▁Alexander	-11164
▁contraste	-11165
▁disputada	-11166
▁enterrado	-11167
▁divulgação	-11168
▁professora	-11169
▁Democrática	-11170
▁particulares	-11171
▁contemporânea	-11172
US	-11173
ör	-11174
ceis	-11175
inga	-11176
▁Big	-11177
▁She	-11178
▁pop	-11179
parou	-11180
▁Autó	-11181
▁rumo	-11182
▁Graça	-11183
▁euros	-11184
▁pediu	-11185
▁curtas	-11186
▁plural	-11187
▁implica	-11188
▁nervoso	-11189
▁segmento	-11190
▁uniforme	-11191
▁concepção	-11192
▁fenômenos	-11193
▁impressão	-11194
▁Fisiologia	-11195
ritariamente	-11196
▁antiguidade	-11197
▁colonizadores	-11198
BM	-11199
)",	-11200
dam	-11201
▁00	-11202
cone	-11203
fano	-11204
hias	-11205
issé	-11206
izan	-11207
çois	-11208
▁Vla	-11209
▁ace	-11210
▁pir	-11211
viano	-11212
▁Chia	-11213
▁Numa	-11214
▁rapa	-11215
atinga	-11216
váquia	-11217
▁Indon	-11218
▁aluno	-11219
▁bloco	-11220
▁rotei	-11221
▁Ávila	-11222
conheci	-11223
▁Mérito	-11224
▁endere	-11225
▁milhas	-11226
gregação	-11227
▁dedicar	-11228
Instituto	-11229
▁Espacial	-11230
▁paisagens	-11231
▁intelectual	-11232
Lu	-11233
ος	-11234
3),	-11235
ori	-11236
pot	-11237
ray	-11238
uru	-11239
ilde	-11240
▁Cór	-11241
▁Kal	-11242
▁Rem	-11243
▁iné	-11244
adrez	-11245
▁Agos	-11246
▁Alma	-11247
▁Eric	-11248
▁ocul	-11249
▁umas	-11250
▁visa	-11251
keting	-11252
ticano	-11253
tivais	-11254
▁Holly	-11255
▁Luzia	-11256
▁Roque	-11257
▁aéreo	-11258
▁gerou	-11259
▁prome	-11260
emburgo	-11261
ladolid	-11262
▁bancos	-11263
▁Bernard	-11264
▁Paraíso	-11265
▁discurso	-11266
▁pioneiro	-11267
▁técnicos	-11268
▁Trabalhou	-11269
▁consumido	-11270
▁disputado	-11271
▁linguística	-11272
▁transformar	-11273
//	-11274
▁*	-11275
Tra	-11276
gor	-11277
nec	-11278
▁CB	-11279
▁SE	-11280
Cruz	-11281
cend	-11282
coss	-11283
viou	-11284
árma	-11285
▁Coo	-11286
▁Gue	-11287
▁Sib	-11288
▁avô	-11289
úmulo	-11290
▁1938	-11291
▁Comp	-11292
▁Flor	-11293
▁Oute	-11294
▁Prop	-11295
▁boas	-11296
▁juiz	-11297
▁trem	-11298
Itália	-11299
grafos	-11300
▁Dessa	-11301
▁belas	-11302
▁conso	-11303
▁mexic	-11304
hadores	-11305
▁Andalu	-11306
▁Década	-11307
▁Parada	-11308
▁assume	-11309
▁astero	-11310
▁avanço	-11311
▁crença	-11312
▁portal	-11313
▁africana	-11314
▁carnaval	-11315
▁católico	-11316
▁falantes	-11317
▁vendidos	-11318
▁divindade	-11319
▁Corporation	-11320
▁inteiramente	-11321
▁transformado	-11322
▁apresentações	-11323
dões	-11324
icle	-11325
ione	-11326
▁158	-11327
▁700	-11328
▁Gam	-11329
▁Kan	-11330
pente	-11331
piter	-11332
▁Esco	-11333
▁indi	-11334
▁melo	-11335
▁Banda	-11336
▁Joana	-11337
▁Media	-11338
▁decis	-11339
▁empate	-11340
▁harmon	-11341
▁israel	-11342
▁promul	-11343
▁Comenda	-11344
▁banhada	-11345
▁cereais	-11346
▁estátua	-11347
▁instala	-11348
▁prefere	-11349
▁reduzir	-11350
▁sucedeu	-11351
▁destacou	-11352
▁profundo	-11353
▁deputados	-11354
▁executado	-11355
▁facilitar	-11356
▁numerosas	-11357
▁satélites	-11358
▁provincial	-11359
▁demográficos	-11360
▁pentecostais	-11361
▁substituindo	-11362
▁acontecimentos	-11363
▁infraestrutura	-11364
RI	-11365
nu	-11366
ght	-11367
ski	-11368
roma	-11369
▁alu	-11370
▁cem	-11371
▁dra	-11372
▁loc	-11373
ragem	-11374
range	-11375
xelas	-11376
▁Boca	-11377
▁Riba	-11378
▁chão	-11379
▁tiro	-11380
▁("53"	-11381
▁Novas	-11382
▁Pieve	-11383
▁Prado	-11384
▁sexto	-11385
identes	-11386
▁Cabral	-11387
▁falada	-11388
▁pernas	-11389
▁sofrer	-11390
▁Portela	-11391
▁cardeal	-11392
▁emissão	-11393
▁lançados	-11394
▁reduzida	-11395
▁escultura	-11396
▁pronuncia	-11397
▁transferiu	-11398
▁presidentes	-11399
▁configuração	-11400
pero	-11401
▁Cax	-11402
arani	-11403
copia	-11404
cário	-11405
gredi	-11406
vilha	-11407
▁Nuno	-11408
▁turb	-11409
▁2012.	-11410
▁Carmo	-11411
▁Marte	-11412
▁Renas	-11413
▁drena	-11414
▁paras	-11415
▁perde	-11416
▁Moscou	-11417
▁cálcio	-11418
▁esteja	-11419
▁falado	-11420
▁mandou	-11421
▁nomeou	-11422
▁requis	-11423
▁simpli	-11424
▁verdes	-11425
Portugal	-11426
▁Fonseca	-11427
▁alcance	-11428
▁critica	-11429
▁herança	-11430
▁marinha	-11431
▁prision	-11432
▁sexuais	-11433
▁Leonardo	-11434
▁adiciona	-11435
▁apaixona	-11436
▁formados	-11437
▁indicações	-11438
▁instruções	-11439
▁mencionado	-11440
▁conhecimentos	-11441
▁administrativos	-11442
CP	-11443
RM	-11444
ap	-11445
Bar	-11446
faz	-11447
▁84	-11448
bido	-11449
ians	-11450
idiu	-11451
▁2.0	-11452
▁Arn	-11453
▁Irm	-11454
▁Nie	-11455
▁Sun	-11456
▁fós	-11457
tendo	-11458
tério	-11459
▁Ford	-11460
▁Infe	-11461
▁dram	-11462
▁repe	-11463
iciona	-11464
▁1955,	-11465
▁Recon	-11466
▁antic	-11467
▁matar	-11468
▁pasta	-11469
▁teles	-11470
▁Giulia	-11471
▁Mateus	-11472
▁Vargas	-11473
▁nossos	-11474
▁pobres	-11475
▁Observa	-11476
▁Situada	-11477
▁fortale	-11478
▁virtual	-11479
▁Noroeste	-11480
▁articula	-11481
▁ocasiões	-11482
▁introduziu	-11483
▁Florianópolis	-11484
▁significativo	-11485
;/	-11486
rua	-11487
▁Wo	-11488
dium	-11489
lida	-11490
mber	-11491
pers	-11492
▁105	-11493
▁Chu	-11494
▁Mãe	-11495
▁gla	-11496
andra	-11497
fismo	-11498
ileia	-11499
▁Anna	-11500
▁Open	-11501
▁cães	-11502
▁insu	-11503
▁prio	-11504
eições	-11505
▁1994.	-11506
▁colet	-11507
▁intra	-11508
▁norue	-11509
dutores	-11510
▁Public	-11511
▁ocupar	-11512
▁quinze	-11513
▁Grisões	-11514
▁humanas	-11515
▁setores	-11516
▁Britânica	-11517
▁Indonésia	-11518
▁condenado	-11519
▁navegador	-11520
▁Valladolid	-11521
▁candidatos	-11522
▁trabalhava	-11523
▁necessários	-11524
cli	-11525
ísta	-11526
▁Art	-11527
▁Zim	-11528
▁neo	-11529
garia	-11530
gicas	-11531
úmero	-11532
▁Crem	-11533
▁alar	-11534
▁polo	-11535
▁1966,	-11536
▁Basil	-11537
▁Carre	-11538
▁Scott	-11539
▁Solar	-11540
▁Steph	-11541
▁elite	-11542
▁preen	-11543
Venezia	-11544
▁Castan	-11545
▁contêm	-11546
▁oferta	-11547
ciedades	-11548
▁Conheci	-11549
▁mission	-11550
▁sujeito	-11551
rorregião	-11552
▁Calvados	-11553
▁Conforme	-11554
▁Coutinho	-11555
▁absoluta	-11556
▁colocada	-11557
▁cuidados	-11558
▁integrou	-11559
▁Andaluzia	-11560
▁Universal	-11561
▁cientista	-11562
▁continuar	-11563
▁primavera	-11564
essariamente	-11565
▁individuais	-11566
▁transferido	-11567
▁continuidade	-11568
coa	-11569
lla	-11570
▁Py	-11571
gano	-11572
tulo	-11573
▁Uso	-11574
danha	-11575
resso	-11576
▁1954	-11577
▁cicl	-11578
▁1957,	-11579
▁Bruno	-11580
▁Faria	-11581
▁Johann	-11582
▁Marvel	-11583
▁amarela	-11584
▁pescoço	-11585
▁Napoleão	-11586
▁Santuário	-11587
▁narrativa	-11588
▁frequentes	-11589
▁apresentava	-11590
.).	-11591
mol	-11592
pper	-11593
rola	-11594
▁Fru	-11595
tígio	-11596
▁Hans	-11597
▁Mada	-11598
▁Play	-11599
▁incl	-11600
▁neto	-11601
ômicas	-11602
▁Brito	-11603
▁Gales	-11604
▁Sampa	-11605
▁dizem	-11606
▁freqü	-11607
itários	-11608
▁Diário	-11609
▁Fronte	-11610
▁admira	-11611
▁Iniciou	-11612
▁Outeiro	-11613
▁aliança	-11614
▁chinesa	-11615
▁distrib	-11616
▁notícia	-11617
▁tráfego	-11618
▁Raimundo	-11619
▁apropria	-11620
▁genética	-11621
▁servindo	-11622
▁abandonou	-11623
▁avaliação	-11624
▁complexos	-11625
▁exercício	-11626
▁inscrição	-11627
▁variantes	-11628
▁Cavaleiros	-11629
▁literalmente	-11630
://	-11631
ifa	-11632
asca	-11633
lave	-11634
lela	-11635
ttle	-11636
▁26,	-11637
▁Líb	-11638
▁ana	-11639
▁chá	-11640
▁nar	-11641
cerca	-11642
eller	-11643
voros	-11644
▁1958	-11645
▁Bris	-11646
▁pura	-11647
Angelo	-11648
▁1944,	-11649
▁Compu	-11650
▁barco	-11651
▁infra	-11652
▁átomo	-11653
querque	-11654
▁preten	-11655
▁Campina	-11656
▁estágio	-11657
▁parques	-11658
orregiões	-11659
▁Canavese	-11660
▁Clemente	-11661
▁Florença	-11662
▁catedral	-11663
▁derivada	-11664
▁Christian	-11665
▁Confinava	-11666
▁empregado	-11667
▁paróquias	-11668
▁Evangélicas	-11669
cs	-11670
▁#	-11671
uis	-11672
▁83	-11673
▁GP	-11674
▁Kö	-11675
▁Ví	-11676
etas	-11677
olor	-11678
▁27,	-11679
▁30,	-11680
▁Hid	-11681
▁Mis	-11682
▁Tie	-11683
▁bei	-11684
▁bri	-11685
▁Ára	-11686
Porto	-11687
quias	-11688
▁amar	-11689
▁Enter	-11690
▁Síria	-11691
▁induz	-11692
▁preta	-11693
▁acerca	-11694
▁vindos	-11695
▁cavalos	-11696
▁começar	-11697
▁fachada	-11698
tricidade	-11699
▁Basílica	-11700
▁retornar	-11701
postamente	-11702
▁derrotado	-11703
▁gravidade	-11704
▁japoneses	-11705
▁objectivo	-11706
▁Monferrato	-11707
▁Municípios	-11708
▁ocidentais	-11709
▁temporadas	-11710
▁formalmente	-11711
▁especialistas	-11712
zan	-11713
ogle	-11714
tira	-11715
énia	-11716
ópia	-11717
▁Jen	-11718
esses	-11719
tella	-11720
órdia	-11721
▁Meso	-11722
▁Tony	-11723
duções	-11724
umínio	-11725
▁White	-11726
▁seman	-11727
▁Inácio	-11728
▁adição	-11729
▁etapas	-11730
▁mortes	-11731
▁postos	-11732
▁Caminho	-11733
▁Mineiro	-11734
▁habitat	-11735
▁jardins	-11736
▁existiam	-11737
▁muralhas	-11738
▁organiza	-11739
▁reduzido	-11740
▁variados	-11741
▁controlar	-11742
▁iluminação	-11743
▁Pensilvânia	-11744
-4	-11745
LA	-11746
zu	-11747
▁́	-11748
cau	-11749
dad	-11750
pér	-11751
ull	-11752
zen	-11753
▁99	-11754
▁Mó	-11755
amos	-11756
ción	-11757
cria	-11758
hard	-11759
jado	-11760
vano	-11761
viam	-11762
▁Joe	-11763
dação	-11764
minas	-11765
▁Vide	-11766
▁ajus	-11767
▁gama	-11768
▁lote	-11769
▁nele	-11770
grande	-11771
▁1971,	-11772
▁Steve	-11773
▁Vietn	-11774
▁erros	-11775
▁líqui	-11776
formula	-11777
icidade	-11778
▁aprend	-11779
▁laranja	-11780
▁pacotes	-11781
▁Michigan	-11782
▁infecção	-11783
▁Filipinas	-11784
▁corrupção	-11785
▁Localizado	-11786
▁totalidade	-11787
▁Conferência	-11788
▁denominações	-11789
▁Constantinopla	-11790
For	-11791
Rei	-11792
eso	-11793
kar	-11794
red	-11795
▁81	-11796
▁AD	-11797
bida	-11798
cter	-11799
irim	-11800
▁tec	-11801
histó	-11802
mberg	-11803
pesta	-11804
tiano	-11805
verna	-11806
óxido	-11807
▁1959	-11808
▁cito	-11809
▁Algar	-11810
▁Baden	-11811
▁Paiva	-11812
▁Testa	-11813
▁andar	-11814
eirinha	-11815
▁parada	-11816
temática	-11817
▁Reforma	-11818
▁cozinha	-11819
▁horário	-11820
▁privada	-11821
▁ribeira	-11822
icionário	-11823
▁confusão	-11824
▁entregue	-11825
▁princesa	-11826
▁promoção	-11827
▁descreveu	-11828
▁escritora	-11829
▁indicação	-11830
▁organizar	-11831
▁separados	-11832
▁simboliza	-11833
▁similares	-11834
▁denominados	-11835
▁proveniente	-11836
▁determinadas	-11837
▁presidencial	-11838
▁necessariamente	-11839
CT	-11840
Do	-11841
ST	-11842
rós	-11843
.000	-11844
icon	-11845
iola	-11846
magn	-11847
plom	-11848
▁149	-11849
▁Apo	-11850
▁Nei	-11851
oblas	-11852
▁1936	-11853
▁1948	-11854
▁mone	-11855
▁usos	-11856
álises	-11857
▁Defin	-11858
▁Kenne	-11859
▁Negra	-11860
▁Salto	-11861
▁oposto	-11862
▁versos	-11863
▁vocais	-11864
▁comprou	-11865
▁fluvial	-11866
▁negócio	-11867
▁adaptado	-11868
▁circunda	-11869
▁melhorar	-11870
▁Aquitânia	-11871
▁completar	-11872
▁geológico	-11873
▁inferiores	-11874
ologicamente	-11875
▁acompanhado	-11876
▁personalidades	-11877
Fa	-11878
MD	-11879
NT	-11880
ppe	-11881
raz	-11882
tie	-11883
ênis	-11884
▁Dol	-11885
▁Ino	-11886
▁Pog	-11887
▁RTP	-11888
▁cré	-11889
▁têx	-11890
afric	-11891
maria	-11892
tinas	-11893
trico	-11894
óides	-11895
▁1946	-11896
▁graf	-11897
queles	-11898
▁Carlo	-11899
▁Parte	-11900
▁comen	-11901
▁matri	-11902
▁vital	-11903
▁exílio	-11904
metragem	-11905
▁Pública	-11906
▁agentes	-11907
▁férteis	-11908
▁intuito	-11909
▁janelas	-11910
▁policial	-11911
▁reservas	-11912
▁intervalo	-11913
▁proporção	-11914
▁subfamília	-11915
▁legislativo	-11916
▁perspectiva	-11917
▁investimento	-11918
▁ligeiramente	-11919
LO	-11920
gum	-11921
yut	-11922
dona	-11923
▁Bás	-11924
▁are	-11925
midas	-11926
teria	-11927
tures	-11928
▁1900	-11929
▁Otto	-11930
▁bico	-11931
▁esqu	-11932
▁osso	-11933
▁Forma	-11934
▁Opera	-11935
▁Simão	-11936
ângulos	-11937
▁Leiria	-11938
▁décimo	-11939
▁enviou	-11940
▁hierar	-11941
▁Tessino	-11942
▁exercer	-11943
▁ingredi	-11944
▁visível	-11945
▁Carneiro	-11946
▁Missouri	-11947
▁Williams	-11948
▁arquitet	-11949
▁fábricas	-11950
▁gigantes	-11951
▁oferecer	-11952
▁povoados	-11953
▁cerimônia	-11954
▁destruída	-11955
▁divididas	-11956
▁planícies	-11957
▁regulares	-11958
▁turística	-11959
▁exposições	-11960
▁Hidrografia	-11961
▁confluência	-11962
▁Libertadores	-11963
▁administrador	-11964
mp	-11965
vre	-11966
▁89	-11967
bola	-11968
fase	-11969
trus	-11970
gonal	-11971
tomia	-11972
zimas	-11973
▁Bona	-11974
▁Cava	-11975
▁Elas	-11976
▁Mars	-11977
▁deno	-11978
▁maci	-11979
▁tric	-11980
▁Antár	-11981
▁barba	-11982
▁manhã	-11983
▁pseud	-11984
▁salas	-11985
antaria	-11986
tivismo	-11987
▁Doutor	-11988
▁Salyut	-11989
▁Virgem	-11990
▁Zamora	-11991
▁lendas	-11992
▁Reserva	-11993
▁Tavares	-11994
estrutura	-11995
▁Américas	-11996
▁Bruxelas	-11997
▁Colorado	-11998
▁invenção	-11999
▁singular	-12000
▁aproveita	-12001
▁monarquia	-12002
▁Bartolomeu	-12003
▁influenciado	-12004
▁neopentecostais	-12005
"&	-12006
Be	-12007
OR	-12008
bão	-12009
▁Ax	-12010
fero	-12011
hoje	-12012
indu	-12013
quím	-12014
rato	-12015
▁1.6	-12016
▁Der	-12017
▁Fei	-12018
▁ISO	-12019
▁edu	-12020
▁nou	-12021
▁pic	-12022
hidos	-12023
intes	-12024
istem	-12025
▁1949	-12026
▁1957	-12027
▁Wood	-12028
▁irri	-12029
▁1951,	-12030
▁depos	-12031
▁emerg	-12032
▁encar	-12033
▁isóto	-12034
▁matas	-12035
iformes	-12036
▁Caribe	-12037
▁condes	-12038
▁sessão	-12039
istentes	-12040
▁Sampaio	-12041
▁dizendo	-12042
▁indicar	-12043
▁subtrop	-12044
▁Trabalho	-12045
▁Trindade	-12046
▁auxiliar	-12047
▁capítulo	-12048
▁Indústria	-12049
▁bandeiras	-12050
▁disciplina	-12051
▁pescadores	-12052
▁determinação	-12053
inz	-12054
ith	-12055
tím	-12056
azar	-12057
bour	-12058
inae	-12059
unga	-12060
▁Tai	-12061
alada	-12062
▁Game	-12063
▁inex	-12064
▁pale	-12065
▁reme	-12066
ritmos	-12067
tensão	-12068
▁astro	-12069
▁datas	-12070
▁reúne	-12071
▁trama	-12072
▁ópera	-12073
emorial	-12074
▁crimes	-12075
▁propôs	-12076
vermelha	-12077
▁Ontário	-12078
▁armazen	-12079
▁códigos	-12080
▁Campinas	-12081
▁Planalto	-12082
▁Silveira	-12083
▁concluiu	-12084
▁ordenado	-12085
▁quântica	-12086
▁destinado	-12087
▁sacerdote	-12088
▁Comunicação	-12089
▁conseguiram	-12090
7%	-12091
gê	-12092
cco	-12093
hoso	-12094
onça	-12095
redi	-12096
tite	-12097
▁Pam	-12098
cilia	-12099
égios	-12100
▁Ariz	-12101
▁Lapa	-12102
▁arca	-12103
▁diss	-12104
▁jazz	-12105
▁loja	-12106
ingles	-12107
▁Lewis	-12108
▁falha	-12109
▁missa	-12110
ificado	-12111
▁Iraque	-12112
▁Villar	-12113
prefeito	-12114
viamente	-12115
▁Júpiter	-12116
▁Rodovia	-12117
▁bebidas	-12118
▁cristão	-12119
▁filogen	-12120
▁manifes	-12121
▁substan	-12122
▁votação	-12123
▁Ocidente	-12124
▁executar	-12125
▁formatos	-12126
▁ganhando	-12127
▁marítima	-12128
▁africanos	-12129
▁associadas	-12130
▁multiplica	-12131
▁Mesorregião	-12132
dicionalmente	-12133
xi	-12134
Can	-12135
jal	-12136
pua	-12137
▁Aé	-12138
▁ed	-12139
ania	-12140
omem	-12141
tile	-12142
▁154	-12143
▁28,	-12144
▁Alf	-12145
▁Dig	-12146
pédia	-12147
▁2025	-12148
▁Kong	-12149
▁Qual	-12150
▁Vers	-12151
▁ares	-12152
▁pira	-12153
▁tras	-12154
dalena	-12155
âmicas	-12156
▁Jaime	-12157
▁dedos	-12158
▁lagar	-12159
▁Dakota	-12160
▁morrer	-12161
▁vistas	-12162
▁Aliança	-12163
▁executa	-12164
▁existiu	-12165
▁remanes	-12166
▁tarefas	-12167
timamente	-12168
▁Anderson	-12169
▁Concílio	-12170
▁Cristina	-12171
▁Maurício	-12172
▁Vaticano	-12173
▁holandes	-12174
▁pinheiro	-12175
▁conversão	-12176
▁intestino	-12177
▁cachoeiras	-12178
▁incorporado	-12179
▁Massachusetts	-12180
1),	-12181
esco	-12182
gono	-12183
meno	-12184
thon	-12185
▁128	-12186
▁cis	-12187
▁quim	-12188
▁tetra	-12189
bolismo	-12190
futebol	-12191
▁Habita	-12192
▁sugere	-12193
▁vistos	-12194
▁Agência	-12195
▁Coração	-12196
▁atuando	-12197
▁auxílio	-12198
▁coberta	-12199
▁colocou	-12200
▁dezesse	-12201
▁pudesse	-12202
▁revesti	-12203
▁dinâmica	-12204
▁inimigos	-12205
▁Guanabara	-12206
▁segmentos	-12207
▁Território	-12208
▁constantes	-12209
▁medicamentos	-12210
▁subsistência	-12211
BR	-12212
boy	-12213
cap	-12214
ône	-12215
▁86	-12216
cris	-12217
▁Sea	-12218
berta	-12219
bidos	-12220
nuovo	-12221
rocos	-12222
zoico	-12223
ítimo	-12224
▁Sena	-12225
▁Tais	-12226
▁auge	-12227
▁efec	-12228
▁medo	-12229
▁váli	-12230
úngaro	-12231
▁Magno	-12232
▁Olimp	-12233
▁acção	-12234
ficadas	-12235
queiros	-12236
tiveram	-12237
▁Hitler	-12238
▁Island	-12239
▁Montre	-12240
▁Compara	-12241
▁Serviço	-12242
▁colégio	-12243
▁coronel	-12244
▁foguete	-12245
▁Castello	-12246
▁carácter	-12247
▁comissão	-12248
▁feminina	-12249
▁ferrovia	-12250
▁nomeação	-12251
▁aparelhos	-12252
▁depressão	-12253
▁descobrir	-12254
▁esperança	-12255
▁celebração	-12256
▁habilidade	-12257
▁quilômetro	-12258
▁Subdivisões	-12259
▁ascendência	-12260
▁campeonatos	-12261
▁plataformas	-12262
▁Microrregião	-12263
▁especializada	-12264
PU	-12265
çá	-12266
gri	-12267
kha	-12268
▁91	-12269
▁SI	-12270
▁lâ	-12271
foro	-12272
iosa	-12273
lhes	-12274
talo	-12275
▁163	-12276
▁lus	-12277
teles	-12278
vando	-12279
âmbio	-12280
▁Foot	-12281
▁High	-12282
▁anat	-12283
▁esto	-12284
▁imen	-12285
▁pinh	-12286
quenta	-12287
▁1962.	-12288
▁1974.	-12289
▁2015.	-12290
▁Abreu	-12291
▁Lucas	-12292
▁Marie	-12293
▁Tiago	-12294
▁honor	-12295
lamação	-12296
▁Marche	-12297
▁casada	-12298
▁confir	-12299
▁gravar	-12300
▁reflex	-12301
▁servem	-12302
▁Oficial	-12303
▁aceitou	-12304
▁caminha	-12305
▁privile	-12306
▁templos	-12307
▁Astúrias	-12308
▁Topônimo	-12309
▁impostos	-12310
▁proteína	-12311
▁Hollywood	-12312
▁acidentes	-12313
▁acreditam	-12314
▁projetado	-12315
▁conquistar	-12316
▁estratégia	-12317
▁jurisdição	-12318
▁registrado	-12319
▁parlamentar	-12320
▁participaram	-12321
PT	-12322
má	-12323
lha	-12324
▁92	-12325
Adda	-12326
econ	-12327
enne	-12328
orou	-12329
teto	-12330
▁Bap	-12331
▁Coc	-12332
▁Dur	-12333
▁PSD	-12334
▁bos	-12335
▁pne	-12336
filme	-12337
micos	-12338
padas	-12339
rizou	-12340
tidão	-12341
viera	-12342
▁Data	-12343
▁Doug	-12344
cessor	-12345
▁Muito	-12346
▁Plano	-12347
▁Tempo	-12348
▁sinté	-12349
▁League	-12350
▁opções	-12351
▁viajou	-12352
▁estatís	-12353
▁Sudoeste	-12354
▁aparição	-12355
▁sobrinho	-12356
iversidade	-12357
▁concluído	-12358
▁antigamente	-12359
▁publicidade	-12360
▁determinados	-12361
▁proprietários	-12362
bua	-12363
▁nó	-12364
tory	-12365
▁Fox	-12366
dimir	-12367
tidae	-12368
érito	-12369
▁Jacu	-12370
▁Lobo	-12371
▁2013.	-12372
▁Lança	-12373
▁bolsa	-12374
▁infin	-12375
riburgo	-12376
▁Molise	-12377
▁diplom	-12378
▁farmac	-12379
▁Energia	-12380
▁Equador	-12381
▁escreve	-12382
▁refugia	-12383
▁Prefeito	-12384
▁nasceram	-12385
▁tratados	-12386
tentrional	-12387
▁mineração	-12388
▁castelhano	-12389
▁jornalismo	-12390
▁supostamente	-12391
llo	-12392
pil	-12393
▁(6	-12394
asco	-12395
feld	-12396
mega	-12397
pora	-12398
vico	-12399
▁90,	-12400
▁Isl	-12401
▁Pis	-12402
board	-12403
doria	-12404
▁Free	-12405
▁Peri	-12406
▁core	-12407
▁mesa	-12408
▁1855,	-12409
▁1956,	-12410
▁1986.	-12411
▁2016.	-12412
▁Amara	-12413
▁Barca	-12414
▁Mello	-12415
▁Ocupa	-12416
▁altar	-12417
▁divis	-12418
▁roman	-12419
▁Fernão	-12420
▁Limita	-12421
▁glicos	-12422
▁tempor	-12423
ticidade	-12424
▁America	-12425
▁amizade	-12426
▁apelida	-12427
relétrica	-12428
▁estreita	-12429
▁positivo	-12430
▁estudante	-12431
▁ocorreram	-12432
maticamente	-12433
▁Prefeitura	-12434
▁fabricante	-12435
▁Actualmente	-12436
▁Albuquerque	-12437
▁compreensão	-12438
▁considerando	-12439
▁abastecimento	-12440
▁Cr	-12441
▁SP	-12442
▁fí	-12443
helm	-12444
ocar	-12445
omer	-12446
úrio	-12447
▁Ade	-12448
▁Law	-12449
▁Lit	-12450
▁Sky	-12451
▁Viv	-12452
Minas	-12453
andês	-12454
▁Eure	-12455
▁mega	-12456
alaria	-12457
iderou	-12458
tássio	-12459
▁Amaro	-12460
▁Macau	-12461
▁demol	-12462
▁dieta	-12463
▁ecoss	-12464
▁peito	-12465
▁supre	-12466
▁Montal	-12467
▁Street	-12468
▁perigo	-12469
▁pratos	-12470
▁Prêmios	-12471
▁Publica	-12472
▁Técnico	-12473
▁gigante	-12474
▁sediada	-12475
▁aumentou	-12476
▁baixista	-12477
▁rodovias	-12478
▁soberano	-12479
▁aposentado	-12480
▁envolvidos	-12481
▁reivindica	-12482
▁Vasconcelos	-12483
▁estrangeiro	-12484
▁Distribuição	-12485
▁arquitectura	-12486
ali	-12487
juda	-12488
▁101	-12489
▁70,	-12490
▁Tin	-12491
comun	-12492
parta	-12493
▁Lodi	-12494
▁Long	-12495
▁acas	-12496
▁alma	-12497
▁bons	-12498
▁char	-12499
▁fuga	-12500
íssima	-12501
▁2022.	-12502
▁Artur	-12503
▁Taxon	-12504
▁decom	-12505
▁forti	-12506
▁pagar	-12507
▁taxas	-12508
ourinho	-12509
▁fundos	-12510
▁imagin	-12511
▁jamais	-12512
▁fechado	-12513
▁iniciar	-12514
▁liderado	-12515
▁vantagem	-12516
▁começando	-12517
▁impression	-12518
▁sociedades	-12519
▁civilização	-12520
▁procedimento	-12521
▁desenvolvidas	-12522
++	-12523
.&	-12524
4%	-12525
pó	-12526
5),	-12527
cur	-12528
log	-12529
rad	-12530
▁Ak	-12531
▁Geo	-12532
▁Jar	-12533
▁Kas	-12534
▁Nan	-12535
▁Pré	-12536
▁alo	-12537
chefe	-12538
clear	-12539
gária	-12540
iadas	-12541
inger	-12542
▁Clar	-12543
▁Ligu	-12544
▁NASA	-12545
▁idos	-12546
▁osci	-12547
aldade	-12548
▁Leite	-12549
▁Night	-12550
▁Possu	-12551
▁Times	-12552
▁Enredo	-12553
▁Forças	-12554
▁meteor	-12555
▁passos	-12556
▁presas	-12557
▁Jackson	-12558
▁Polícia	-12559
▁Somente	-12560
▁Álvares	-12561
▁entender	-12562
▁invernos	-12563
▁Estrutura	-12564
▁envolvido	-12565
▁Luxemburgo	-12566
▁financeiro	-12567
▁substituiu	-12568
▁Antiguidade	-12569
▁experimento	-12570
▁observações	-12571
▁implementação	-12572
box	-12573
edo	-12574
els	-12575
ref	-12576
▁93	-12577
bico	-12578
hosa	-12579
▁Tib	-12580
▁Vaz	-12581
▁ler	-12582
bulos	-12583
litos	-12584
nando	-12585
worth	-12586
crânia	-12587
filhos	-12588
▁Colon	-12589
▁Largo	-12590
▁Manda	-12591
▁Vouga	-12592
▁desas	-12593
▁penas	-12594
▁pereg	-12595
tocolmo	-12596
▁Contra	-12597
▁codice	-12598
▁excess	-12599
primento	-12600
▁Supremo	-12601
▁Toronto	-12602
▁farinha	-12603
▁mantido	-12604
▁rituais	-12605
▁Palmeira	-12606
▁atendida	-12607
▁aventura	-12608
▁cristais	-12609
▁alimentam	-12610
▁festivais	-12611
▁aumentando	-12612
▁facilidade	-12613
▁inteligência	-12614
""	-12615
wen	-12616
▁01	-12617
▁71	-12618
▁UR	-12619
bala	-12620
icão	-12621
lare	-12622
zere	-12623
zima	-12624
▁1,5	-12625
▁168	-12626
▁Eti	-12627
▁Giu	-12628
itécn	-12629
ranha	-12630
raria	-12631
▁1947	-12632
▁Will	-12633
▁alon	-12634
▁espí	-12635
▁1900,	-12636
▁1950.	-12637
▁Johan	-12638
vadores	-12639
▁Aristó	-12640
▁azeite	-12641
▁chegam	-12642
▁futura	-12643
▁motiva	-12644
▁médias	-12645
▁supera	-12646
▁Benfica	-12647
▁atender	-12648
▁cerveja	-12649
▁reporta	-12650
▁tornado	-12651
incluindo	-12652
▁Unidades	-12653
▁centrais	-12654
▁impresso	-12655
▁liderada	-12656
▁Palestina	-12657
▁ancestral	-12658
▁controvér	-12659
▁desenhada	-12660
▁Arquitetura	-12661
▁restauração	-12662
'.	-12663
unk	-12664
▁za	-12665
guez	-12666
usto	-12667
zana	-12668
▁Viz	-12669
▁tab	-12670
ginal	-12671
rouca	-12672
íadas	-12673
▁Lang	-12674
inguém	-12675
ixador	-12676
▁1964.	-12677
▁simbó	-12678
rinense	-12679
▁Condes	-12680
▁sucede	-12681
▁democrá	-12682
▁deserto	-12683
▁gerando	-12684
▁hábitos	-12685
▁urbanas	-12686
▁Benedito	-12687
▁Software	-12688
▁líquidos	-12689
▁obtenção	-12690
▁Segurança	-12691
▁francesas	-12692
▁companhias	-12693
▁Democrático	-12694
▁científicas	-12695
▁classificou	-12696
▁complicações	-12697
3"	-12698
Cl	-12699
PR	-12700
kes	-12701
ambu	-12702
▁135	-12703
▁145	-12704
▁153	-12705
▁17.	-12706
▁Bau	-12707
▁Cit	-12708
▁Wei	-12709
▁eva	-12710
▁lua	-12711
▁ovo	-12712
Leste	-12713
bados	-12714
cchio	-12715
douro	-12716
pirou	-12717
reado	-12718
▁1934	-12719
▁Alca	-12720
▁Mike	-12721
▁Rios	-12722
férica	-12723
fônica	-12724
itivas	-12725
▁1923,	-12726
▁1988.	-12727
▁Alpes	-12728
▁Metal	-12729
▁cento	-12730
▁domic	-12731
▁lavou	-12732
▁orago	-12733
▁Arábia	-12734
▁Ocorre	-12735
▁Oxford	-12736
▁Varese	-12737
▁Varzim	-12738
▁baixos	-12739
▁escura	-12740
▁Baviera	-12741
▁Lorenzo	-12742
▁externo	-12743
▁gráfica	-12744
▁passava	-12745
▁romanas	-12746
▁Mendonça	-12747
▁aprovado	-12748
▁cardíaco	-12749
▁colônias	-12750
▁Vilarinho	-12751
▁concessão	-12752
▁escolhida	-12753
▁disposição	-12754
▁linguagens	-12755
▁interpretado	-12756
Du	-12757
cló	-12758
old	-12759
bite	-12760
▁129	-12761
▁171	-12762
▁Afe	-12763
▁cun	-12764
pondo	-12765
ranas	-12766
tizar	-12767
▁Galo	-12768
▁coli	-12769
▁fina	-12770
▁invo	-12771
cantes	-12772
renças	-12773
▁1936,	-12774
▁1947,	-12775
▁2014.	-12776
▁Lagos	-12777
▁Roger	-12778
▁exame	-12779
chester	-12780
▁Google	-12781
▁Nazaré	-12782
▁compõe	-12783
▁diário	-12784
▁fígado	-12785
▁variar	-12786
ntemente	-12787
▁Unidade	-12788
▁andares	-12789
▁celeste	-12790
▁espiral	-12791
▁inimigo	-12792
▁obtendo	-12793
▁Araguaia	-12794
▁Vermelha	-12795
▁absorção	-12796
▁cardíaca	-12797
▁chefiado	-12798
▁concedeu	-12799
▁laterais	-12800
▁tribunal	-12801
cionalmente	-12802
▁artesanato	-12803
▁operacionais	-12804
AV	-12805
ée	-12806
Cha	-12807
Par	-12808
▁87	-12809
ceno	-12810
cete	-12811
gosa	-12812
illo	-12813
mate	-12814
nito	-12815
povo	-12816
work	-12817
íria	-12818
▁Ato	-12819
▁One	-12820
▁STS	-12821
ervou	-12822
portu	-12823
tárqu	-12824
ônima	-12825
▁1910	-12826
▁1939	-12827
▁1944	-12828
▁Forn	-12829
▁Vera	-12830
▁demi	-12831
▁tris	-12832
entino	-12833
▁Arcos	-12834
▁Marta	-12835
▁Stein	-12836
▁esper	-12837
▁pouso	-12838
▁suave	-12839
▁usina	-12840
▁volun	-12841
terapia	-12842
tências	-12843
▁Trapal	-12844
▁decide	-12845
▁resídu	-12846
▁trazer	-12847
▁Cândido	-12848
▁Sergipe	-12849
▁começam	-12850
▁revelou	-12851
▁comprome	-12852
▁formadas	-12853
▁económicas	-12854
▁financeira	-12855
▁terminando	-12856
▁denominadas	-12857
!"	-12858
AC	-12859
Ser	-12860
bir	-12861
bru	-12862
▁MP	-12863
relo	-12864
▁Cec	-12865
▁Crí	-12866
▁IBM	-12867
▁Pró	-12868
▁Riv	-12869
araná	-12870
logos	-12871
áceas	-12872
▁Gaia	-12873
thians	-12874
▁Arque	-12875
▁Ficou	-12876
réscimo	-12877
▁Templo	-12878
▁Vários	-12879
▁aéreas	-12880
▁causou	-12881
▁russos	-12882
▁surpre	-12883
▁verões	-12884
▁vulcão	-12885
▁Marinho	-12886
▁Período	-12887
▁recusou	-12888
▁servida	-12889
▁Espécies	-12890
▁alumínio	-12891
▁decisões	-12892
▁deixaram	-12893
▁explicar	-12894
▁teologia	-12895
▁variadas	-12896
▁Institute	-12897
▁adicionais	-12898
▁democracia	-12899
▁associações	-12900
wi	-12901
2):	-12902
ced	-12903
von	-12904
ppen	-12905
vere	-12906
▁122	-12907
▁29,	-12908
▁350	-12909
▁Fio	-12910
▁rép	-12911
▁vêm	-12912
▁1933	-12913
▁1953	-12914
▁Alan	-12915
▁Bara	-12916
▁Hino	-12917
▁palm	-12918
gência	-12919
▁1963.	-12920
▁abrir	-12921
▁couto	-12922
▁densa	-12923
▁febre	-12924
▁rever	-12925
▁ricos	-12926
▁Fontes	-12927
▁Reggio	-12928
▁Series	-12929
▁alusão	-12930
▁aristo	-12931
▁discíp	-12932
▁indire	-12933
▁portos	-12934
▁traços	-12935
▁Índico	-12936
▁colinas	-12937
▁crescer	-12938
▁radical	-12939
▁Barragem	-12940
▁François	-12941
▁Friburgo	-12942
▁fundaram	-12943
▁orquestra	-12944
▁posiciona	-12945
ximadamente	-12946
▁realizaram	-12947
▁comerciante	-12948
rs	-12949
▁Nú	-12950
oura	-12951
tuar	-12952
vich	-12953
ésio	-12954
gélia	-12955
icana	-12956
pensa	-12957
▁Capa	-12958
▁Sabu	-12959
▁Show	-12960
▁1952,	-12961
▁Naval	-12962
▁judeu	-12963
▁polêm	-12964
▁Freire	-12965
▁Fátima	-12966
▁operar	-12967
▁Domingo	-12968
▁Ucrânia	-12969
▁básicos	-12970
▁editado	-12971
▁enzimas	-12972
▁privado	-12973
▁análises	-12974
▁concreto	-12975
▁costeira	-12976
▁espectro	-12977
▁gerações	-12978
▁plástico	-12979
▁resolveu	-12980
▁Definição	-12981
▁Monumento	-12982
▁argumento	-12983
▁auxiliado	-12984
▁expressões	-12985
.:	-12986
Th	-12987
yu	-12988
Uni	-12989
féu	-12990
mus	-12991
pide	-12992
▁169	-12993
▁31,	-12994
▁60,	-12995
▁Anc	-12996
▁Tay	-12997
ciana	-12998
▁1924	-12999
▁1932	-13000
▁Arco	-13001
▁Escu	-13002
▁Vene	-13003
▁chuv	-13004
▁elec	-13005
▁resi	-13006
ressar	-13007
temala	-13008
tídeos	-13009
vância	-13010
▁1982.	-13011
▁Ambos	-13012
▁Stone	-13013
▁caule	-13014
▁pecul	-13015
intendo	-13016
▁Awards	-13017
▁compôs	-13018
▁doutor	-13019
▁eleita	-13020
▁pontes	-13021
cionadas	-13022
ologista	-13023
▁carioca	-13024
▁parecem	-13025
▁pilotos	-13026
▁precede	-13027
▁receita	-13028
▁adequada	-13029
▁direcção	-13030
▁resolver	-13031
▁fortaleza	-13032
▁intermedi	-13033
▁percepção	-13034
▁emancipado	-13035
▁estrutural	-13036
▁assassinado	-13037
▁identificado	-13038
▁reconhecidos	-13039
FI	-13040
Ol	-13041
Um	-13042
cis	-13043
orra	-13044
tila	-13045
ógio	-13046
▁80,	-13047
▁Boy	-13048
▁Fab	-13049
▁Spi	-13050
▁XXI	-13051
▁lau	-13052
▁meu	-13053
▁Brun	-13054
▁Cola	-13055
▁Gold	-13056
▁mere	-13057
▁rein	-13058
rianos	-13059
vision	-13060
▁1972.	-13061
▁Nasce	-13062
▁Cortes	-13063
▁Económ	-13064
▁Várias	-13065
▁adulto	-13066
▁antece	-13067
▁listas	-13068
▁nervos	-13069
▁ondula	-13070
▁ritual	-13071
▁Harvard	-13072
▁pobreza	-13073
▁sólidos	-13074
▁vivendo	-13075
▁Universo	-13076
▁alterada	-13077
▁corridas	-13078
▁quarenta	-13079
▁utilizou	-13080
▁formações	-13081
▁Composição	-13082
▁atualidade	-13083
▁intitulada	-13084
▁mecanismos	-13085
▁Corinthians	-13086
▁compreendida	-13087
Bu	-13088
CB	-13089
Ou	-13090
▁★	-13091
ffe	-13092
▁Hé	-13093
▁PD	-13094
cade	-13095
cker	-13096
gela	-13097
rige	-13098
ritz	-13099
▁148	-13100
▁Gaz	-13101
▁ses	-13102
bello	-13103
▁Brás	-13104
mentam	-13105
▁1958.	-13106
▁2017.	-13107
▁Atlan	-13108
▁Pardo	-13109
▁noção	-13110
ímetros	-13111
▁agress	-13112
▁barcos	-13113
▁desbra	-13114
▁franco	-13115
▁Fundada	-13116
▁Moderna	-13117
▁Salerno	-13118
▁cápsula	-13119
▁ordenou	-13120
▁Nintendo	-13121
▁batalhas	-13122
▁elevadas	-13123
▁mundiais	-13124
▁quaisquer	-13125
▁soberania	-13126
▁fragmentos	-13127
▁horizontal	-13128
▁isolamento	-13129
▁aproximação	-13130
▁continentes	-13131
▁mortalidade	-13132
▁reconhecidas	-13133
▁Intermediária	-13134
_5	-13135
fr	-13136
▁gê	-13137
than	-13138
tuou	-13139
vião	-13140
▁172	-13141
▁Ora	-13142
▁ite	-13143
estro	-13144
tânea	-13145
çados	-13146
▁2023	-13147
▁Avis	-13148
▁Fros	-13149
▁Lula	-13150
▁ades	-13151
▁ates	-13152
▁doou	-13153
áldica	-13154
ódromo	-13155
ônimos	-13156
▁Ponto	-13157
▁Salva	-13158
▁exemp	-13159
▁fugir	-13160
▁gente	-13161
▁mapas	-13162
▁tocou	-13163
queleto	-13164
▁Pietra	-13165
▁acopla	-13166
▁fungos	-13167
▁incapa	-13168
▁marcos	-13169
▁mudado	-13170
▁cidadão	-13171
▁ensaios	-13172
▁gravada	-13173
▁mudaram	-13174
▁outrora	-13175
▁Baptista	-13176
▁Direitos	-13177
▁Visconde	-13178
▁aparecer	-13179
▁capitais	-13180
▁Pertenceu	-13181
▁Tennessee	-13182
▁mostrando	-13183
▁partícula	-13184
▁acrescenta	-13185
▁meridional	-13186
▁sentimento	-13187
▁reconstrução	-13188
dru	-13189
dus	-13190
fro	-13191
fus	-13192
éia	-13193
▁97	-13194
▁Deu	-13195
▁Mog	-13196
▁Algo	-13197
▁Bang	-13198
▁León	-13199
▁Port	-13200
▁Rica	-13201
▁mons	-13202
▁rápi	-13203
ânsito	-13204
▁anfíb	-13205
▁golfo	-13206
▁impro	-13207
▁lutar	-13208
▁opção	-13209
▁revol	-13210
▁Verona	-13211
▁poetas	-13212
▁reside	-13213
▁ressal	-13214
▁Argélia	-13215
▁Copenha	-13216
▁Douglas	-13217
▁Genebra	-13218
▁penetra	-13219
▁revisão	-13220
▁botânica	-13221
▁complexa	-13222
▁muscular	-13223
▁potássio	-13224
▁definidas	-13225
▁destinada	-13226
▁prestígio	-13227
▁arquitecto	-13228
▁introduzida	-13229
▁agricultores	-13230
▁assentamento	-13231
▁estabilidade	-13232
▁interessante	-13233
ao	-13234
pta	-13235
rai	-13236
▁MG	-13237
▁Up	-13238
ieri	-13239
iles	-13240
▁3.0	-13241
▁Dor	-13242
▁coe	-13243
▁náu	-13244
ciosa	-13245
drico	-13246
nário	-13247
pping	-13248
tícia	-13249
▁1956	-13250
▁Patr	-13251
▁Sony	-13252
▁Wolf	-13253
▁pola	-13254
▁1939,	-13255
▁Pádua	-13256
▁Ultra	-13257
▁bomba	-13258
▁ergue	-13259
▁estím	-13260
▁fárma	-13261
▁ninho	-13262
▁patas	-13263
▁secos	-13264
▁segre	-13265
▁sócio	-13266
▁Grêmio	-13267
▁Quebec	-13268
▁ativos	-13269
▁partiu	-13270
▁acusado	-13271
▁astrona	-13272
▁colegas	-13273
▁perdido	-13274
▁típicas	-13275
▁visitar	-13276
▁diminuir	-13277
▁situadas	-13278
▁Agostinho	-13279
▁concluída	-13280
estividades	-13281
▁julgamento	-13282
▁libertação	-13283
▁Castelnuovo	-13284
▁espectadores	-13285
▁mundialmente	-13286
BN	-13287
MC	-13288
Ver	-13289
ild	-13290
▁Lí	-13291
▁OS	-13292
▁Ár	-13293
gner	-13294
tton	-13295
ísse	-13296
▁108	-13297
▁116	-13298
▁Mam	-13299
▁Nig	-13300
▁clo	-13301
Geral	-13302
bital	-13303
çadas	-13304
▁1928	-13305
▁Subs	-13306
▁tons	-13307
gantes	-13308
lingen	-13309
panema	-13310
vistas	-13311
▁1911,	-13312
▁Organ	-13313
▁fiéis	-13314
▁macho	-13315
▁Eleito	-13316
▁Sintra	-13317
▁devida	-13318
▁observ	-13319
▁avenida	-13320
▁incluiu	-13321
▁minissé	-13322
▁típicos	-13323
quirições	-13324
▁Autónoma	-13325
▁sinônimo	-13326
▁tornaria	-13327
▁vitamina	-13328
▁aquisição	-13329
▁discussão	-13330
futebolista	-13331
▁decorrência	-13332
▁dinamarquês	-13333
▁administrada	-13334
▁nacionalidade	-13335
AS	-13336
LC	-13337
Sé	-13338
dã	-13339
19,	-13340
▁Sk	-13341
copa	-13342
onos	-13343
rens	-13344
very	-13345
ásio	-13346
▁113	-13347
▁156	-13348
▁Ami	-13349
▁Bes	-13350
▁Ces	-13351
▁Fog	-13352
▁cro	-13353
▁maç	-13354
icata	-13355
rizar	-13356
▁Gard	-13357
▁Jama	-13358
▁Maci	-13359
▁fras	-13360
▁harm	-13361
▁pole	-13362
▁íons	-13363
quinho	-13364
âmicos	-13365
▁1937,	-13366
▁Edgar	-13367
▁Reich	-13368
▁Space	-13369
▁Teles	-13370
▁cirúr	-13371
▁psico	-13372
▁semif	-13373
▁France	-13374
▁Ligure	-13375
▁Moraes	-13376
▁Newton	-13377
▁Vercel	-13378
▁chamam	-13379
▁circun	-13380
▁prémio	-13381
▁surgem	-13382
▁transl	-13383
▁únicas	-13384
▁Geraldo	-13385
▁Wilhelm	-13386
▁aterris	-13387
▁coberto	-13388
▁liderou	-13389
▁nativas	-13390
▁Montreal	-13391
▁entradas	-13392
▁extraord	-13393
▁mandatos	-13394
▁obrigado	-13395
▁Juventude	-13396
▁organizou	-13397
▁propaganda	-13398
▁roteirista	-13399
▁apresentador	-13400
▁compositores	-13401
RC	-13402
há	-13403
CAR	-13404
pic	-13405
trô	-13406
▁Ok	-13407
anes	-13408
órum	-13409
▁112	-13410
▁115	-13411
▁167	-13412
▁50,	-13413
▁Bot	-13414
▁pig	-13415
▁var	-13416
passa	-13417
vagem	-13418
▁esla	-13419
▁fila	-13420
▁gara	-13421
inário	-13422
tícias	-13423
▁notur	-13424
▁sagra	-13425
cedores	-13426
▁Passos	-13427
▁Renato	-13428
▁Sobral	-13429
▁Urbano	-13430
▁espera	-13431
▁labora	-13432
▁menino	-13433
▁partid	-13434
icologia	-13435
▁Comarca	-13436
▁detalha	-13437
▁exibição	-13438
▁hardware	-13439
▁inclusão	-13440
▁maneiras	-13441
▁premiado	-13442
▁racional	-13443
▁argentino	-13444
▁reputação	-13445
▁santuário	-13446
▁acreditava	-13447
▁geográfico	-13448
▁constituindo	-13449
▁investimentos	-13450
▁probabilidade	-13451
▁universitário	-13452
/18	-13453
eim	-13454
som	-13455
▁(7	-13456
gria	-13457
pher	-13458
suce	-13459
xtos	-13460
▁1.8	-13461
dinha	-13462
feiço	-13463
ixado	-13464
patia	-13465
riore	-13466
wares	-13467
▁Beat	-13468
▁Guer	-13469
▁Laje	-13470
▁Live	-13471
▁dava	-13472
trofes	-13473
▁1933,	-13474
▁Pinus	-13475
▁irmãs	-13476
▁êxito	-13477
▁Amaral	-13478
▁chumbo	-13479
▁concei	-13480
▁vender	-13481
▁Bolonha	-13482
▁confere	-13483
▁fechada	-13484
▁medição	-13485
▁término	-13486
graduação	-13487
▁continha	-13488
▁deveriam	-13489
▁jesuítas	-13490
▁realizam	-13491
▁cinquenta	-13492
dimensional	-13493
▁Integração	-13494
▁predadores	-13495
▁geográficas	-13496
▁	-13497
a	-13498
e	-13499
o	-13500
i	-13501
s	-13502
r	-13503
d	-13504
n	-13505
t	-13506
m	-13507
u	-13508
c	-13509
l	-13510
p	-13511
,	-13512
g	-13513
.	-13514
v	-13515
f	-13516
b	-13517
h	-13518
ã	-13519
é	-13520
ç	-13521
q	-13522
1	-13523
A	-13524
C	-13525
í	-13526
"	-13527
2	-13528
á	-13529
0	-13530
S	-13531
z	-13532
P	-13533
E	-13534
M	-13535
-	-13536
9	-13537
)	-13538
(	-13539
x	-13540
ó	-13541
O	-13542
B	-13543
F	-13544
j	-13545
I	-13546
D	-13547
T	-13548
R	-13549
N	-13550
8	-13551
k	-13552
3	-13553
5	-13554
L	-13555
G	-13556
4	-13557
6	-13558
7	-13559
ê	-13560
V	-13561
õ	-13562
J	-13563
H	-13564
ú	-13565
y	-13566
:	-13567
U	-13568
à	-13569
â	-13570
/	-13571
w	-13572
ô	-13573
;	-13574
X	-13575
W	-13576
K	-13577
'	-13578
É	-13579
Q	-13580
%	-13581
Z	-13582
Á	-13583
&	-13584
–	-13585
Y	-13586
_	-13587
—	-13588
”	-13589
“	-13590
°	-13591
=	-13592
[	-13593
]	-13594
ü	-13595
Í	-13596
ö	-13597
+	-13598
è	-13599
!	-13600
ä	-13601
$	-13602
»	-13603
«	-13604
|	-13605
ñ	-13606
’	-13607
Ó	-13608
?	-13609
α	-13610
市	-13611
ō	-13612
À	-13613
ο	-13614
ς	-13615
ø	-13616
*	-13617
а	-13618
о	-13619
ρ	-13620
ν	-13621
Ú	-13622
•	-13623
{	-13624
ā	-13625
и	-13626
ι	-13627
μ	-13628
ë	-13629
ò	-13630
#	-13631
́	-13632
τ	-13633
н	-13634
ì	-13635
е	-13636
å	-13637
ε	-13638
ا	-13639
р	-13640
λ	-13641
Â	-13642
′	-13643
κ	-13644
σ	-13645
\	-13646
π	-13647
в	-13648
с	-13649
‘	-13650
л	-13651
י	-13652
★	-13653
š	-13654
к	-13655
}	-13656
ل	-13657
ū	-13658
î	-13659
ό	-13660
γ	-13661
ί	-13662
æ	-13663
ά	-13664
т	-13665
ו	-13666
η	-13667
δ	-13668
υ	-13669
ī	-13670
β	-13671
ð	-13672
−	-13673
×	-13674
ł	-13675
Ö	-13676
ה	-13677
ē	-13678
Ã	-13679
ù	-13680
ر	-13681
ن	-13682
ː	-13683
û	-13684
ω	-13685
ר	-13686
ל	-13687
θ	-13688
ي	-13689
ý	-13690
д	-13691
м	-13692
č	-13693
­	-13694
Å	-13695
→	-13696
ć	-13697
ּ	-13698
א	-13699
~	-13700
у	-13701
ב	-13702
Ç	-13703
⁄	-13704
ß	-13705
و	-13706
έ	-13707
م	-13708
φ	-13709
й	-13710
ύ	-13711
ï	-13712
ή	-13713
ч	-13714
ַ	-13715
ת	-13716
χ	-13717
ָ	-13718
ı	-13719
б	-13720
Ø	-13721
ă	-13722
€	-13723
ְ	-13724
מ	-13725
ب	-13726
د	-13727
С	-13728
@	-13729
ˈ	-13730
ы	-13731
ש	-13732
ь	-13733
я	-13734
ד	-13735
Δ	-13736
س	-13737
Ê	-13738
ִ	-13739
ע	-13740
ş	-13741
п	-13742
Ô	-13743
田	-13744
大	-13745
·	-13746
Ō	-13747
्	-13748
`	-13749
г	-13750
ם	-13751
Æ	-13752
ח	-13753
ž	-13754
ə	-13755
Π	-13756
⟩	-13757
ń	-13758
נ	-13759
ة	-13760
⟨	-13761
ه	-13762
†	-13763
ŏ	-13764
А	-13765
ج	-13766
§	-13767
œ	-13768
Š	-13769
ɔ	-13770
Α	-13771
К	-13772
ן	-13773
ت	-13774
ع	-13775
र	-13776
山	-13777
Σ	-13778
ा	-13779
ц	-13780
ś	-13781
Κ	-13782
川	-13783
ɛ	-13784
В	-13785
з	-13786
ʃ	-13787
Î	-13788
П	-13789
Р	-13790
כ	-13791
ʒ	-13792
ώ	-13793
Г	-13794
М	-13795
ֹ	-13796
פ	-13797
日	-13798
道	-13799
ק	-13800
ح	-13801
ز	-13802
南	-13803
£	-13804
ف	-13805
Ü	-13806
ֵ	-13807
‡	-13808
中	-13809
ξ	-13810
х	-13811
野	-13812
ą	-13813
ğ	-13814
Ñ	-13815
ř	-13816
ш	-13817
原	-13818
¡	-13819
ș	-13820
ʻ	-13821
Д	-13822
ז	-13823
צ	-13824
江	-13825
도	-13826
시	-13827
^	-13828
ɑ	-13829
И	-13830
ט	-13831
ა	-13832
ŭ	-13833
Б	-13834
ג	-13835
ش	-13836
ि	-13837
ḥ	-13838
♭	-13839
津	-13840
ő	-13841
म	-13842
国	-13843
東	-13844
Č	-13845
Μ	-13846
ׁ	-13847
أ	-13848
ك	-13849
ی	-13850
‐	-13851
±	-13852
Þ	-13853
ż	-13854
ֶ	-13855
त	-13856
ἀ	-13857
北	-13858
Ś	-13859
ɪ	-13860
क	-13861
ṣ	-13862
ἐ	-13863
島	-13864
Đ	-13865
ס	-13866
区	-13867
®	-13868
ė	-13869
ě	-13870
Ł	-13871
ǎ	-13872
ъ	-13873
ი	-13874
岡	-13875
İ	-13876
ʿ	-13877
Θ	-13878
Т	-13879
і	-13880
ص	-13881
♯	-13882
小	-13883
州	-13884
本	-13885
þ	-13886
ĩ	-13887
ț	-13888
ɾ	-13889
ʾ	-13890
Τ	-13891
Ä	-13892
È	-13893
Γ	-13894
Ο	-13895
ζ	-13896
Н	-13897
ф	-13898
э	-13899
ա	-13900
ق	-13901
ả	-13902
⁣	-13903
≈	-13904
●	-13905
八	-13906
松	-13907
高	-13908
ź	-13909
Ž	-13910
̃	-13911
Β	-13912
Ε	-13913
Ι	-13914
Λ	-13915
Ч	-13916
ط	-13917
ى	-13918
ṭ	-13919
⇒	-13920
三	-13921
新	-13922
प	-13923
य	-13924
ु	-13925
ῆ	-13926
の	-13927
和	-13928
西	-13929
谷	-13930
÷	-13931
ę	-13932
ĭ	-13933
ʊ	-13934
ψ	-13935
О	-13936
ю	-13937
ё	-13938
َ	-13939
स	-13940
ን	-13941
ṇ	-13942
ῖ	-13943
≡	-13944
⊕	-13945
上	-13946
伊	-13947
城	-13948
ň	-13949
Ş	-13950
ţ	-13951
Ν	-13952
Χ	-13953
Ω	-13954
ह	-13955
ी	-13956
்	-13957
ῦ	-13958
≤	-13959
佐	-13960
名	-13961
경	-13962
광	-13963
ǫ	-13964
ɐ	-13965
ʁ	-13966
Φ	-13967
З	-13968
Х	-13969
ֲ	-13970
ך	-13971
न	-13972
व	-13973
ე	-13974
∈	-13975
♦	-13976
ス	-13977
ン	-13978
京	-13979
國	-13980
天	-13981
富	-13982
廣	-13983
見	-13984
구	-13985
주	-13986
Õ	-13987
͡	-13988
У	-13989
ж	-13990
щ	-13991
إ	-13992
ो	-13993
ს	-13994
უ	-13995
ẽ	-13996
ệ	-13997
ὐ	-13998
≥	-13999
い	-14000
ッ	-14001
古	-14002
地	-14003
尾	-14004
崎	-14005
戸	-14006
豊	-14007
전	-14008
¥	-14009
Ò	-14010
ĕ	-14011
ŋ	-14012
ů	-14013
Ά	-14014
Л	-14015
ն	-14016
ئ	-14017
خ	-14018
گ	-14019
ग	-14020
ት	-14021
ọ	-14022
Ἀ	-14023
ὀ	-14024
り	-14025
久	-14026
会	-14027
別	-14028
安	-14029
忠	-14030
慶	-14031
村	-14032
水	-14033
石	-14034
賀	-14035
金	-14036
역	-14037
ǔ	-14038
ɨ	-14039
ɹ	-14040
ј	-14041
ض	-14042
ܝ	-14043
ज	-14044
द	-14045
ব	-14046
র	-14047
ვ	-14048
რ	-14049
ር	-14050
ḗ	-14051
ὑ	-14052
―	-14053
▪	-14054
う	-14055
ク	-14056
ラ	-14057
井	-14058
人	-14059
加	-14060
化	-14061
域	-14062
府	-14063
木	-14064
神	-14065
長	-14066
대	-14067
북	-14068
천	-14069
Ì	-14070
ũ	-14071
ɕ	-14072
ɲ	-14073
̈	-14074
Ζ	-14075
Υ	-14076
Е	-14077
Ф	-14078
Ц	-14079
Ю	-14080
Я	-14081
غ	-14082
پ	-14083
ک	-14084
া	-14085
্	-14086
་	-14087
ლ	-14088
ል	-14089
ḇ	-14090
ἄ	-14091
←	-14092
∴	-14093
≠	-14094
リ	-14095
ル	-14096
ヶ	-14097
ー	-14098
全	-14099
前	-14100
吉	-14101
土	-14102
宮	-14103
文	-14104
春	-14105
朝	-14106
橋	-14107
歌	-14108
沢	-14109
治	-14110
泉	-14111
浜	-14112
海	-14113
清	-14114
皇	-14115
社	-14116
福	-14117
米	-14118
門	-14119
馬	-14120
鹿	-14121
국	-14122
남	-14123
¢	-14124
ǐ	-14125
ʀ	-14126
̀	-14127
Ψ	-14128
چ	-14129
ܐ	-14130
ं	-14131
ण	-14132
ध	-14133
ब	-14134
ल	-14135
े	-14136
ু	-14137
්	-14138
ለ	-14139
ነ	-14140
ḏ	-14141
ἰ	-14142
お	-14143
か	-14144
ト	-14145
世	-14146
代	-14147
公	-14148
多	-14149
子	-14150
平	-14151
愛	-14152
方	-14153
月	-14154
沼	-14155
浦	-14156
生	-14157
華	-14158
郡	-14159
都	-14160
龍	-14161
산	-14162
상	-14163
원	-14164
충	-14165
¿	-14166
Ż	-14167
ơ	-14168
ɡ	-14169
ʔ	-14170
ˌ	-14171
̠	-14172
Ό	-14173
Η	-14174
ء	-14175
آ	-14176
ث	-14177
ـ	-14178
च	-14179
़	-14180
॑	-14181
॒	-14182
গ	-14183
ি	-14184
க	-14185
ட	-14186
ம	-14187
ர	-14188
ක	-14189
თ	-14190
ხ	-14191
ህ	-14192
እ	-14193
የ	-14194
ḍ	-14195
ẹ	-14196
ứ	-14197
ὰ	-14198
ὶ	-14199
₹	-14200
∆	-14201
◊	-14202
♀	-14203
あ	-14204
き	-14205
た	-14206
な	-14207
ア	-14208
イ	-14209
オ	-14210
下	-14211
场	-14212
士	-14213
宇	-14214
尙	-14215
御	-14216
手	-14217
林	-14218
根	-14219
民	-14220
河	-14221
漢	-14222
火	-14223
知	-14224
美	-14225
羽	-14226
自	-14227
蓮	-14228
藤	-14229
行	-14230
記	-14231
通	-14232
阪	-14233
風	-14234
黒	-14235
강	-14236
수	-14237
울	-14238
청	-14239
¬	-14240
ÿ	-14241
Ă	-14242
đ	-14243
Ē	-14244
ħ	-14245
ǒ	-14246
Ț	-14247
ʧ	-14248
̥	-14249
Ж	-14250
ո	-14251
ׂ	-14252
ذ	-14253
ْ	-14254
ް	-14255
अ	-14256
ष	-14257
ू	-14258
প	-14259
ম	-14260
ল	-14261
ර	-14262
ා	-14263
კ	-14264
ფ	-14265
ც	-14266
ራ	-14267
በ	-14268
ባ	-14269
ብ	-14270
Ḥ	-14271
ẓ	-14272
ễ	-14273
ị	-14274
ἑ	-14275
ἔ	-14276
ἡ	-14277
Ἰ	-14278
ὁ	-14279
ὄ	-14280
Ὑ	-14281
ὸ	-14282
„	-14283
‰	-14284
₵	-14285
─	-14286
♂	-14287
♘	-14288
♠	-14289
く	-14290
し	-14291
つ	-14292
み	-14293
る	-14294
エ	-14295
・	-14296
一	-14297
二	-14298
五	-14299
倉	-14300
光	-14301
内	-14302
勢	-14303
千	-14304
口	-14305
四	-14306
坂	-14307
夏	-14308
学	-14309
寺	-14310
尺	-14311
岩	-14312
常	-14313
志	-14314
明	-14315
星	-14316
曜	-14317
有	-14318
株	-14319
武	-14320
波	-14321
洲	-14322
無	-14323
特	-14324
甲	-14325
町	-14326
穂	-14327
經	-14328
角	-14329
越	-14330
那	-14331
部	-14332
酒	-14333
間	-14334
関	-14335
須	-14336
館	-14337
ꜣ	-14338
별	-14339
서	-14340
성	-14341
특	-14342
𐬀	-14343
©	-14344
ļ	-14345
Œ	-14346
ť	-14347
Ū	-14348
ű	-14349
ų	-14350
ŵ	-14351
ư	-14352
ǧ	-14353
ȟ	-14354
ɟ	-14355
ʏ	-14356
ʼ	-14357
̟	-14358
̯	-14359
Ξ	-14360
Ϝ	-14361
Ш	-14362
қ	-14363
ң	-14364
յ	-14365
ֻ	-14366
־	-14367
ظ	-14368
ُ	-14369
ِ	-14370
މ	-14371
ट	-14372
ड	-14373
ृ	-14374
ঙ	-14375
শ	-14376
ਰ	-14377
ਾ	-14378
த	-14379
ு	-14380
ນ	-14381
ད	-14382
ბ	-14383
დ	-14384
ზ	-14385
ნ	-14386
ስ	-14387
ቅ	-14388
ች	-14389
ና	-14390
ዝ	-14391
ያ	-14392
ṓ	-14393
ṛ	-14394
ế	-14395
Ọ	-14396
ộ	-14397
ἱ	-14398
ἴ	-14399
ῥ	-14400
ῶ	-14401
⇧	-14402
∞	-14403
◦	-14404
ⵜ	-14405
が	-14406
さ	-14407
す	-14408
ら	-14409
わ	-14410
ん	-14411
カ	-14412
コ	-14413
ザ	-14414
ズ	-14415
ピ	-14416
ミ	-14417
レ	-14418
丹	-14419
予	-14420
交	-14421
信	-14422
出	-14423
台	-14424
司	-14425
命	-14426
咸	-14427
場	-14428
塚	-14429
室	-14430
家	-14431
式	-14432
彦	-14433
後	-14434
成	-14435
柏	-14436
汉	-14437
温	-14438
瀬	-14439
犬	-14440
留	-14441
白	-14442
相	-14443
空	-14444
立	-14445
站	-14446
羅	-14447
苏	-14448
茂	-14449
路	-14450
遠	-14451
里	-14452
陸	-14453
飯	-14454
魚	-14455
鳥	-14456
가	-14457
라	-14458
이	-14459
인	-14460
𐎠	-14461
Ā	-14462
Ĉ	-14463
ņ	-14464
ŕ	-14465
Ǝ	-14466
Ș	-14467
ɒ	-14468
ɣ	-14469
ʎ	-14470
̄	-14471
̺	-14472
Ͳ	-14473
ΐ	-14474
Ρ	-14475
Ϙ	-14476
ϟ	-14477
Э	-14478
ӑ	-14479
ի	-14480
լ	-14481
կ	-14482
ֿ	-14483
ץ	-14484
ܘ	-14485
އ	-14486
ަ	-14487
ީ	-14488
ު	-14489
ँ	-14490
ः	-14491
श	-14492
ੁ	-14493
ക	-14494
ප	-14495
ය	-14496
ශ	-14497
ී	-14498
ง	-14499
ງ	-14500
ດ	-14501
ວ	-14502
ສ	-14503
ག	-14504
გ	-14505
ო	-14506
መ	-14507
ሰ	-14508
አ	-14509
ኩ	-14510
ዳ	-14511
ድ	-14512
ᐃ	-14513
ḡ	-14514
ḵ	-14515
ṅ	-14516
Ṭ	-14517
ṱ	-14518
ạ	-14519
ậ	-14520
ắ	-14521
Ἐ	-14522
Ἑ	-14523
ἶ	-14524
ᾰ	-14525
‍	-14526
‒	-14527
∇	-14528
√	-14529
∧	-14530
∪	-14531
⋅	-14532
⌘	-14533
♗	-14534
➞	-14535
⦁	-14536
こ	-14537
そ	-14538
ち	-14539
は	-14540
ば	-14541
び	-14542
へ	-14543
や	-14544
れ	-14545
を	-14546
ウ	-14547
キ	-14548
グ	-14549
シ	-14550
タ	-14551
テ	-14552
ナ	-14553
ニ	-14554
ビ	-14555
プ	-14556
七	-14557
为	-14558
主	-14559
亀	-14560
仁	-14561
保	-14562
元	-14563
共	-14564
分	-14565
十	-14566
取	-14567
周	-14568
味	-14569
喜	-14570
園	-14571
塩	-14572
太	-14573
妙	-14574
字	-14575
季	-14576
守	-14577
少	-14578
居	-14579
屋	-14580
岐	-14581
幡	-14582
広	-14583
庄	-14584
張	-14585
心	-14586
戦	-14587
技	-14588
旭	-14589
曲	-14590
書	-14591
曹	-14592
条	-14593
来	-14594
板	-14595
母	-14596
氏	-14597
法	-14598
深	-14599
渡	-14600
港	-14601
湖	-14602
澳	-14603
牛	-14604
王	-14605
珠	-14606
班	-14607
球	-14608
環	-14609
男	-14610
百	-14611
的	-14612
真	-14613
祭	-14614
稲	-14615
竹	-14616
笠	-14617
筑	-14618
箸	-14619
精	-14620
能	-14621
船	-14622
芸	-14623
草	-14624
藩	-14625
観	-14626
赤	-14627
足	-14628
近	-14629
郎	-14630
鄉	-14631
长	-14632
阳	-14633
限	-14634
陽	-14635
雄	-14636
青	-14637
飛	-14638
香	-14639
鶴	-14640
黄	-14641
고	-14642
군	-14643
금	-14644
김	-14645
려	-14646
삼	-14647
애	-14648
자	-14649
지	-14650
창	-14651
춘	-14652
함	-14653
𐬌	-14654
	-14655
Ý	-14656
Ġ	-14657
Ī	-14658
Ķ	-14659
ķ	-14660
ĺ	-14661
Ŭ	-14662
Ɔ	-14663
Ǎ	-14664
ǝ	-14665
ǣ	-14666
ɤ	-14667
ɫ	-14668
ɵ	-14669
ʂ	-14670
ʑ	-14671
ʕ	-14672
̧	-14673
̪	-14674
̱	-14675
͇	-14676
ͳ	-14677
Ί	-14678
Ύ	-14679
ϊ	-14680
ϙ	-14681
ϝ	-14682
Ϻ	-14683
ғ	-14684
ү	-14685
ӏ	-14686
ә	-14687
ө	-14688
Ա	-14689
ե	-14690
խ	-14691
մ	-14692
ս	-14693
ր	-14694
ւ	-14695
ّ	-14696
ګ	-14697
ܓ	-14698
ܙ	-14699
ܛ	-14700
ܡ	-14701
ܢ	-14702
ܣ	-14703
ܪ	-14704
ލ	-14705
ޓ	-14706
ާ	-14707
ި	-14708
ञ	-14709
फ	-14710
ळ	-14711
ং	-14712
ক	-14713
জ	-14714
ত	-14715
দ	-14716
ন	-14717
স	-14718
ে	-14719
ਗ	-14720
ਦ	-14721
ଗ	-14722
ା	-14723
ண	-14724
ப	-14725
ய	-14726
ல	-14727
வ	-14728
ா	-14729
ி	-14730
ீ	-14731
ே	-14732
ை	-14733
ం	-14734
ర	-14735
్	-14736
ು	-14737
ോ	-14738
്	-14739
ං	-14740
ජ	-14741
ට	-14742
ඩ	-14743
න	-14744
ල	-14745
ව	-14746
ි	-14747
ු	-14748
ේ	-14749
ร	-14750
ຂ	-14751
ະ	-14752
ັ	-14753
ເ	-14754
འ	-14755
န	-14756
်	-14757
ჟ	-14758
შ	-14759
ም	-14760
ረ	-14761
ሪ	-14762
ሻ	-14763
ቦ	-14764
ተ	-14765
ቶ	-14766
ኑ	-14767
ኢ	-14768
ኤ	-14769
ክ	-14770
ዑ	-14771
ዮ	-14772
ደ	-14773
ግ	-14774
ጵ	-14775
ፀ	-14776
ፍ	-14777
ᒡ	-14778
ᓗ	-14779
Ḫ	-14780
ḫ	-14781
ḽ	-14782
ḿ	-14783
ṋ	-14784
Ṣ	-14785
ṯ	-14786
ầ	-14787
ỳ	-14788
ỹ	-14789
ἕ	-14790
ἠ	-14791
ἥ	-14792
ἷ	-14793
Ἱ	-14794
ὕ	-14795
ὖ	-14796
ᾶ	-14797
‭	-14798
‹	-14799
›	-14800
⁊	-14801
⁠	-14802
₦	-14803
₪	-14804
⇀	-14805
⇌	-14806
∀	-14807
∑	-14808
∙	-14809
∨	-14810
∼	-14811
☉	-14812
☭	-14813
➵	-14814
⨀	-14815
⨁	-14816
ⴰ	-14817
ⵎ	-14818
ⵣ	-14819
。	-14820
え	-14821
け	-14822
じ	-14823
っ	-14824
て	-14825
で	-14826
と	-14827
に	-14828
ぱ	-14829
ひ	-14830
ま	-14831
チ	-14832
ツ	-14833
デ	-14834
ド	-14835
パ	-14836
ベ	-14837
ョ	-14838
东	-14839
串	-14840
丸	-14841
之	-14842
乡	-14843
事	-14844
今	-14845
仙	-14846
份	-14847
伝	-14848
佛	-14849
健	-14850
入	-14851
內	-14852
冬	-14853
冷	-14854
切	-14855
利	-14856
務	-14857
勝	-14858
區	-14859
华	-14860
印	-14861
史	-14862
合	-14863
向	-14864
吹	-14865
呂	-14866
回	-14867
団	-14868
圓	-14869
坊	-14870
块	-14871
垣	-14872
塔	-14873
夜	-14874
央	-14875
女	-14876
娃	-14877
宁	-14878
宗	-14879
宝	-14880
宿	-14881
寧	-14882
対	-14883
岛	-14884
巣	-14885
工	-14886
巻	-14887
帝	-14888
帯	-14889
幸	-14890
座	-14891
延	-14892
建	-14893
徐	-14894
徳	-14895
念	-14896
息	-14897
恵	-14898
慈	-14899
所	-14900
拳	-14901
敷	-14902
斎	-14903
无	-14904
昌	-14905
晉	-14906
曆	-14907
杰	-14908
杵	-14909
枝	-14910
柳	-14911
栃	-14912
栗	-14913
桂	-14914
桩	-14915
梅	-14916
條	-14917
森	-14918
植	-14919
椿	-14920
樂	-14921
横	-14922
機	-14923
殿	-14924
毘	-14925
毛	-14926
永	-14927
池	-14928
泰	-14929
淸	-14930
湯	-14931
溪	-14932
滑	-14933
潮	-14934
濃	-14935
為	-14936
熊	-14937
燗	-14938
爆	-14939
爲	-14940
父	-14941
牧	-14942
狭	-14943
玉	-14944
理	-14945
瑞	-14946
甘	-14947
界	-14948
畿	-14949
登	-14950
盛	-14951
矢	-14952
砂	-14953
砺	-14954
禹	-14955
秦	-14956
競	-14957
第	-14958
筷	-14959
糸	-14960
結	-14961
綾	-14962
義	-14963
者	-14964
股	-14965
脇	-14966
航	-14967
般	-14968
良	-14969
芝	-14970
芦	-14971
花	-14972
若	-14973
茅	-14974
茨	-14975
荒	-14976
萩	-14977
蒲	-14978
蔚	-14979
蔵	-14980
蘭	-14981
街	-14982
製	-14983
議	-14984
豆	-14985
辺	-14986
造	-14987
邱	-14988
郷	-14989
醂	-14990
釜	-14991
銀	-14992
鎌	-14993
鏡	-14994
银	-14995
门	-14996
阿	-14997
随	-14998
雲	-14999
面	-15000
駒	-15001
马	-15002
魏	-15003
麹	-15004
黑	-15005
龙	-15006
ꜜ	-15007
공	-15008
관	-15009
기	-15010
리	-15011
명	-15012
모	-15013
무	-15014
민	-15015
반	-15016
부	-15017
선	-15018
세	-15019
스	-15020
안	-15021
유	-15022
일	-15023
제	-15024
조	-15025
중	-15026
치	-15027
프	-15028
한	-15029
회	-15030
𐎢	-15031
𐎭	-15032
𐎶	-15033
𐎼	-15034
𐏀	-15035
𐬎	-15036
𐬨	-15037
𐬭	-15038
𒀀	-15039
	-15040
	-15041
¤	-15042
¶	-15043
Ï	-15044
Ć	-15045
Ĕ	-15046
Ě	-15047
ġ	-15048
ģ	-15049
ĥ	-15050
Ħ	-15051
Ĭ	-15052
ĸ	-15053
Ľ	-15054
Ŋ	-15055
Ŏ	-15056
Ő	-15057
Ŕ	-15058
ŗ	-15059
Ţ	-15060
ŷ	-15061
Ɖ	-15062
Ɛ	-15063
Ƒ	-15064
ƒ	-15065
Ɣ	-15066
Ʋ	-15067
Ʒ	-15068
ƿ	-15069
ǁ	-15070
ǃ	-15071
Ǐ	-15072
Ǒ	-15073
Ǔ	-15074
ǖ	-15075
Ǧ	-15076
ǰ	-15077
ǽ	-15078
ȝ	-15079
ȳ	-15080
ȴ	-15081
ȵ	-15082
ɖ	-15083
ɜ	-15084
ɢ	-15085
ɥ	-15086
ɦ	-15087
ɧ	-15088
ɴ	-15089
ɽ	-15090
ʈ	-15091
ʌ	-15092
ʐ	-15093
ʣ	-15094
ʦ	-15095
ʽ	-15096
ˇ	-15097
˔	-15098
˭	-15099
̂	-15100
̆	-15101
̊	-15102
̌	-15103
̝	-15104
̞	-15105
̦	-15106
̩	-15107
͑	-15108
͵	-15109
Έ	-15110
Ϟ	-15111
Ϡ	-15112
ϡ	-15113
ϻ	-15114
Ђ	-15115
Є	-15116
І	-15117
Ј	-15118
Љ	-15119
Њ	-15120
Ћ	-15121
Џ	-15122
ђ	-15123
ѓ	-15124
ї	-15125
љ	-15126
њ	-15127
ћ	-15128
ѝ	-15129
џ	-15130
Ҁ	-15131
ҁ	-15132
ҙ	-15133
ҡ	-15134
һ	-15135
Ӄ	-15136
Բ	-15137
Դ	-15138
Լ	-15139
Կ	-15140
Հ	-15141
Ն	-15142
Ջ	-15143
գ	-15144
դ	-15145
թ	-15146
հ	-15147
պ	-15148
տ	-15149
ք	-15150
֫	-15151
ֱ	-15152
ֳ	-15153
ֽ	-15154
ף	-15155
ױ	-15156
ײ	-15157
׳	-15158
؋	-15159
ؤ	-15160
ً	-15161
ٱ	-15162
ڤ	-15163
ۆ	-15164
ۍ	-15165
ܕ	-15166
ܚ	-15167
ܟ	-15168
ܥ	-15169
ܨ	-15170
ܩ	-15171
ܫ	-15172
ހ	-15173
ރ	-15174
ބ	-15175
ވ	-15176
ފ	-15177
ދ	-15178
ގ	-15179
ސ	-15180
ޖ	-15181
ޤ	-15182
ެ	-15183
ޭ	-15184
ޯ	-15185
आ	-15186
ई	-15187
उ	-15188
ऋ	-15189
ख	-15190
झ	-15191
थ	-15192
भ	-15193
ऱ	-15194
ै	-15195
।	-15196
॥	-15197
খ	-15198
চ	-15199
ট	-15200
ণ	-15201
ধ	-15202
ফ	-15203
য	-15204
হ	-15205
়	-15206
ী	-15207
ো	-15208
ਆ	-15209
ਜ	-15210
ਪ	-15211
ਬ	-15212
ਵ	-15213
ੰ	-15214
ત	-15215
ર	-15216
સ	-15217
ુ	-15218
ଓ	-15219
ଙ	-15220
ଡ	-15221
ପ	-15222
ବ	-15223
ର	-15224
ଶ	-15225
ସ	-15226
଼	-15227
ି	-15228
ୋ	-15229
୍	-15230
அ	-15231
இ	-15232
ங	-15233
ச	-15234
ஜ	-15235
ந	-15236
ன	-15237
ஸ	-15238
ோ	-15239
ఆ	-15240
ణ	-15241
ద	-15242
ధ	-15243
ప	-15244
వ	-15245
శ	-15246
ీ	-15247
ే	-15248
ಂ	-15249
ಕ	-15250
ಗ	-15251
ಡ	-15252
ಣ	-15253
ಮ	-15254
ರ	-15255
ಲ	-15256
ಳ	-15257
ವ	-15258
ೀ	-15259
ೂ	-15260
ೆ	-15261
್	-15262
ട	-15263
ണ	-15264
ഴ	-15265
വ	-15266
ി	-15267
ീ	-15268
ණ	-15269
ත	-15270
ද	-15271
ධ	-15272
ම	-15273
ො	-15274
ෝ	-15275
ค	-15276
ช	-15277
ต	-15278
ธ	-15279
ม	-15280
ย	-15281
ห	-15282
ี	-15283
เ	-15284
ใ	-15285
ไ	-15286
่	-15287
์	-15288
ກ	-15289
ຄ	-15290
ຈ	-15291
ຕ	-15292
ພ	-15293
ລ	-15294
ຫ	-15295
ອ	-15296
າ	-15297
ິ	-15298
ີ	-15299
ຽ	-15300
ແ	-15301
ཁ	-15302
ང	-15303
ཐ	-15304
པ	-15305
ཕ	-15306
མ	-15307
ཚ	-15308
ཡ	-15309
ར	-15310
ལ	-15311
ི	-15312
ུ	-15313
ེ	-15314
ོ	-15315
ྨ	-15316
ྫ	-15317
ྲ	-15318
က	-15319
ရ	-15320
ု	-15321
ტ	-15322
ქ	-15323
ყ	-15324
ᅠ	-15325
ᅳ	-15326
ላ	-15327
ሩ	-15328
ሮ	-15329
ቆ	-15330
ቡ	-15331
ቤ	-15332
ታ	-15333
ቺ	-15334
ኖ	-15335
ኛ	-15336
ከ	-15337
ዊ	-15338
ዔ	-15339
ዕ	-15340
ዜ	-15341
ጀ	-15342
ጊ	-15343
ጋ	-15344
ጠ	-15345
ጥ	-15346
ፃ	-15347
ፅ	-15348
ፈ	-15349
ፊ	-15350
ፋ	-15351
።	-15352
ᐐ	-15353
ᐠ	-15354
ᐯ	-15355
ᑦ	-15356
ᓂ	-15357
ᚠ	-15358
ᚢ	-15359
ᚦ	-15360
ᚨ	-15361
ᚱ	-15362
ᚴ	-15363
ᠢ	-15364
ᠥ	-15365
ᠴ	-15366
ᠵ	-15367
Ḁ	-15368
Ḍ	-15369
ḓ	-15370
Ḗ	-15371
ḱ	-15372
Ḳ	-15373
ḳ	-15374
ḷ	-15375
ṁ	-15376
ṉ	-15377
Ṛ	-15378
ṿ	-15379
ẞ	-15380
ấ	-15381
ẵ	-15382
ặ	-15383
Ẹ	-15384
ố	-15385
ồ	-15386
ổ	-15387
ớ	-15388
ủ	-15389
ἅ	-15390
Ἅ	-15391
ἒ	-15392
Ἔ	-15393
Ἡ	-15394
ἵ	-15395
ὅ	-15396
ὔ	-15397
ὤ	-15398
ὴ	-15399
ᾱ	-15400
ῐ	-15401
ῑ	-15402
ῠ	-15403
ῳ	-15404
‚	-15405
‟	-15406
‬	-15407
⁂	-15408
₡	-15409
₢	-15410
₩	-15411
₲	-15412
℞	-15413
↑	-15414
↔	-15415
⇐	-15416
∖	-15417
∗	-15418
∘	-15419
∥	-15420
∩	-15421
⊂	-15422
⊆	-15423
⊞	-15424
⎙	-15425
═	-15426
◌	-15427
☤	-15428
☺	-15429
♇	-15430
♈	-15431
♊	-15432
♎	-15433
♏	-15434
♣	-15435
♥	-15436
♩	-15437
⚵	-15438
✅	-15439
✗	-15440
ⲏ	-15441
ⲓ	-15442
ⲗ	-15443
ⲟ	-15444
ⲣ	-15445
ⲩ	-15446
ⵉ	-15447
ⵖ	-15448
ⵗ	-15449
⸱	-15450
ぐ	-15451
げ	-15452
ず	-15453
せ	-15454
だ	-15455
ぬ	-15456
ふ	-15457
べ	-15458
ほ	-15459
め	-15460
も	-15461
ゃ	-15462
ゆ	-15463
よ	-15464
ろ	-15465
ェ	-15466
ゲ	-15467
サ	-15468
ジ	-15469
セ	-15470
ソ	-15471
ネ	-15472
ノ	-15473
バ	-15474
ブ	-15475
ペ	-15476
ホ	-15477
ボ	-15478
マ	-15479
メ	-15480
ャ	-15481
ュ	-15482
ヨ	-15483
ワ	-15484
不	-15485
並	-15486
乘	-15487
九	-15488
乱	-15489
亂	-15490
仔	-15491
们	-15492
仮	-15493
任	-15494
伍	-15495
伎	-15496
伟	-15497
伦	-15498
伯	-15499
伸	-15500
低	-15501
佑	-15502
体	-15503
作	-15504
來	-15505
俗	-15506
俣	-15507
修	-15508
倫	-15509
備	-15510
傳	-15511
像	-15512
児	-15513
兔	-15514
党	-15515
兩	-15516
六	-15517
关	-15518
具	-15519
典	-15520
农	-15521
冰	-15522
刈	-15523
刑	-15524
刚	-15525
刺	-15526
勇	-15527
動	-15528
半	-15529
博	-15530
历	-15531
厚	-15532
厦	-15533
参	-15534
可	-15535
号	-15536
各	-15537
后	-15538
君	-15539
吳	-15540
呉	-15541
呼	-15542
咋	-15543
哈	-15544
唄	-15545
唐	-15546
商	-15547
善	-15548
因	-15549
困	-15550
圏	-15551
圭	-15552
均	-15553
埠	-15554
報	-15555
堺	-15556
境	-15557
増	-15558
壱	-15559
売	-15560
変	-15561
夕	-15562
外	-15563
夢	-15564
夫	-15565
夯	-15566
头	-15567
夷	-15568
好	-15569
妈	-15570
妖	-15571
妻	-15572
姫	-15573
嫘	-15574
孝	-15575
學	-15576
宍	-15577
官	-15578
宜	-15579
宰	-15580
寄	-15581
寒	-15582
寝	-15583
寿	-15584
尊	-15585
尔	-15586
尚	-15587
尧	-15588
尻	-15589
尼	-15590
属	-15591
岬	-15592
岸	-15593
峰	-15594
嶋	-15595
巴	-15596
布	-15597
干	-15598
年	-15599
幻	-15600
广	-15601
庁	-15602
序	-15603
庭	-15604
廈	-15605
廊	-15606
廿	-15607
弄	-15608
弓	-15609
引	-15610
弘	-15611
张	-15612
弾	-15613
彙	-15614
征	-15615
思	-15616
性	-15617
恋	-15618
悼	-15619
情	-15620
惟	-15621
意	-15622
感	-15623
报	-15624
拔	-15625
挙	-15626
挞	-15627
振	-15628
掛	-15629
推	-15630
摂	-15631
摩	-15632
播	-15633
擦	-15634
政	-15635
敏	-15636
教	-15637
敦	-15638
数	-15639
斐	-15640
斗	-15641
斧	-15642
斬	-15643
旅	-15644
旗	-15645
早	-15646
昊	-15647
易	-15648
昭	-15649
時	-15650
晋	-15651
普	-15652
景	-15653
暄	-15654
曳	-15655
更	-15656
最	-15657
朱	-15658
朴	-15659
杉	-15660
李	-15661
杜	-15662
枚	-15663
果	-15664
柄	-15665
柩	-15666
栄	-15667
校	-15668
桐	-15669
桑	-15670
桜	-15671
桶	-15672
梁	-15673
梨	-15674
棠	-15675
棣	-15676
楚	-15677
業	-15678
極	-15679
楽	-15680
槻	-15681
標	-15682
樞	-15683
模	-15684
樹	-15685
樽	-15686
橿	-15687
次	-15688
歳	-15689
比	-15690
気	-15691
氷	-15692
氹	-15693
汕	-15694
汚	-15695
沖	-15696
沙	-15697
没	-15698
洞	-15699
流	-15700
浩	-15701
浪	-15702
消	-15703
淡	-15704
添	-15705
渭	-15706
湊	-15707
湛	-15708
湾	-15709
満	-15710
源	-15711
滝	-15712
滨	-15713
潟	-15714
濟	-15715
濮	-15716
濾	-15717
灯	-15718
焼	-15719
煮	-15720
熱	-15721
燕	-15722
牟	-15723
牡	-15724
物	-15725
狗	-15726
狛	-15727
狩	-15728
狼	-15729
猪	-15730
猴	-15731
獅	-15732
玄	-15733
珂	-15734
畷	-15735
疾	-15736
発	-15737
益	-15738
監	-15739
目	-15740
直	-15741
省	-15742
県	-15743
眼	-15744
码	-15745
碕	-15746
碧	-15747
碼	-15748
磐	-15749
磯	-15750
祈	-15751
祖	-15752
祢	-15753
祥	-15754
禅	-15755
禮	-15756
秀	-15757
科	-15758
秩	-15759
稚	-15760
竈	-15761
竜	-15762
童	-15763
笛	-15764
箕	-15765
箭	-15766
節	-15767
築	-15768
篠	-15769
粟	-15770
粿	-15771
紋	-15772
紙	-15773
紫	-15774
終	-15775
総	-15776
線	-15777
練	-15778
縄	-15779
織	-15780
红	-15781
罐	-15782
罰	-15783
羊	-15784
習	-15785
老	-15786
耿	-15787
肉	-15788
肥	-15789
胎	-15790
腐	-15791
臺	-15792
臼	-15793
興	-15794
舎	-15795
舞	-15796
舵	-15797
芜	-15798
芾	-15799
苞	-15800
苫	-15801
英	-15802
茶	-15803
荘	-15804
莽	-15805
菅	-15806
菊	-15807
菜	-15808
菱	-15809
萌	-15810
萍	-15811
葛	-15812
葡	-15813
董	-15814
蒙	-15815
蕨	-15816
藕	-15817
蘇	-15818
虎	-15819
蚌	-15820
蛇	-15821
蛋	-15822
蜜	-15823
衛	-15824
表	-15825
袋	-15826
袖	-15827
袴	-15828
裡	-15829
裾	-15830
視	-15831
訪	-15832
語	-15833
説	-15834
読	-15835
調	-15836
諏	-15837
諫	-15838
諸	-15839
譜	-15840
護	-15841
讀	-15842
记	-15843
豪	-15844
豬	-15845
貝	-15846
贡	-15847
車	-15848
軍	-15849
輝	-15850
輸	-15851
辉	-15852
输	-15853
辞	-15854
辭	-15855
辰	-15856
農	-15857
追	-15858
逗	-15859
逢	-15860
進	-15861
遊	-15862
運	-15863
過	-15864
達	-15865
邪	-15866
醪	-15867
釧	-15868
釵	-15869
鈴	-15870
銭	-15871
錢	-15872
铁	-15873
锦	-15874
镇	-15875
防	-15876
附	-15877
陆	-15878
隊	-15879
雅	-15880
集	-15881
雙	-15882
雞	-15883
難	-15884
雪	-15885
雷	-15886
電	-15887
霞	-15888
静	-15889
韮	-15890
音	-15891
韶	-15892
頭	-15893
養	-15894
馆	-15895
駅	-15896
騨	-15897
骂	-15898
骨	-15899
鬆	-15900
魯	-15901
魹	-15902
鮮	-15903
鯖	-15904
鱼	-15905
鲁	-15906
鲵	-15907
鳩	-15908
鳴	-15909
鴨	-15910
鴻	-15911
鷲	-15912
鷹	-15913
鸣	-15914
麗	-15915
麵	-15916
麻	-15917
黃	-15918
鼠	-15919
ꓼ	-15920
갑	-15921
개	-15922
곡	-15923
균	-15924
그	-15925
단	-15926
당	-15927
덕	-15928
동	-15929
등	-15930
량	-15931
럭	-15932
루	-15933
마	-15934
매	-15935
박	-15936
백	-15937
병	-15938
보	-15939
불	-15940
사	-15941
식	-15942
신	-15943
업	-15944
엘	-15945
영	-15946
요	-15947
월	-15948
육	-15949
윤	-15950
은	-15951
의	-15952
진	-15953
철	-15954
체	-15955
축	-15956
키	-15957
터	-15958
통	-15959
트	-15960
해	-15961
행	-15962
혁	-15963
현	-15964
호	-15965
홀	-15966
홍	-15967
화	-15968
황	-15969
흥	-15970
￼	-15971
𐤀	-15972
𐤁	-15973
𐤋	-15974
𐤌	-15975
𐬃	-15976
𐬋	-15977
𐬛	-15978
𐬢	-15979
𐬥	-15980
𐬰	-15981
𐬵	-15982
𒀪	-15983
𒀭	-15984
𒁀	-15985
𒁺	-15986
𒂗	-15987
𒃶	-15988
𒈬	-15989
𒈾	-15990
𓃀	-15991
𓅱	-15992
𓇋	-15993
𓈉	-15994
𓈗	-15995
